/**
  ******************************************************************************
  * @file    vae_data_params.c
  * @author  AST Embedded Analytics Research Platform
  * @date    Mon Apr  3 14:12:36 2023
  * @brief   AI Tool Automatic Code Generator for Embedded NN computing
  ******************************************************************************
  * Copyright (c) 2023 STMicroelectronics.
  * All rights reserved.
  *
  * This software is licensed under terms that can be found in the LICENSE file
  * in the root directory of this software component.
  * If no LICENSE file comes with this software, it is provided AS-IS.
  ******************************************************************************
  */

#include "vae_data_params.h"


/**  Activations Section  ****************************************************/
ai_handle g_vae_activations_table[1 + 2] = {
  AI_HANDLE_PTR(AI_MAGIC_MARKER),
  AI_HANDLE_PTR(NULL),
  AI_HANDLE_PTR(AI_MAGIC_MARKER),
};




/**  Weights Section  ********************************************************/
AI_ALIGNED(32)
const ai_u64 s_vae_weights_array_u64[1193] = {
  0xbb46b027be2bdb1cU, 0x3e097cba3ca6854dU, 0xbea89752be1ecf9aU, 0xbcc19b66bd878a07U,
  0x3a1850ebbe3e21e2U, 0xbdac4fbbbe2b9e29U, 0xbe479a6ebbc16bcbU, 0xbcb11f7fbd690fe8U,
  0x3df339fbbccf2befU, 0x3ddb6c473f614e39U, 0xbecd174bbf053206U, 0x3d9cbfb4bd53b852U,
  0xbf0c50073f036b4fU, 0x3ee22fe3be6bb6beU, 0xbf19803e3eda1ec5U, 0xbd5f3fafbef9cdb8U,
  0xbd966b2e3df1eedeU, 0x3f2207cfbecd0d70U, 0xbd13a485bce1ef2dU, 0xbdb374d8bef94fcdU,
  0x3f342db6bf274752U, 0xbf1fbb80be4f3071U, 0xbe2109013e61a25bU, 0x3ee6cc13bf0241caU,
  0x3eaadb96bdf41332U, 0x3e330b873e2c97dcU, 0xbecd686cbe69c026U, 0xbeb242cebdc15954U,
  0xbec872fdbd4283dfU, 0xbf0947ddbda7a8d8U, 0xbd27f8163de0b122U, 0xbdba2cc5be5ac3b3U,
  0xbe6845bebb0544c1U, 0xbe22872f3e442019U, 0x3b3ddc4ebea1581dU, 0xbe881f77bd834cd0U,
  0x3e17ce48be6dbe4dU, 0xbe9707f8be158e04U, 0xbeae82413f07acb0U, 0x3e9b90efbeb857e7U,
  0x3d81c60bbe3b4194U, 0x3e8333263d7c3a05U, 0xbe0cd0b1be96f374U, 0x3e1476cfbee77ef4U,
  0xbd5fc1ff3d2496e2U, 0x3e44b5bb3dbf3438U, 0xbe172af43d4119c0U, 0x3ea3f18bbe201980U,
  0xbe65d0e13eb5c65eU, 0xbd4901e0be92cbe6U, 0xbebe843ebedd28e4U, 0xbd56b7633e3e497dU,
  0x3cb053d8bde0723eU, 0xbe859c45bdd3784bU, 0xbd5899293db64859U, 0xbe91cb04bd9fbd6dU,
  0x3e2376a1be578622U, 0x3e340edc3d5adc06U, 0xbe25dcc2be0dacadU, 0xbeb3b814bd6e039bU,
  0x3d8500963eb0d20bU, 0xbdada4ec3f1b666fU, 0x3cc321863e9082deU, 0x3ed949c1be6c3dd2U,
  0xbe04f3273e96b4dcU, 0x3ed3aed4be389a6eU, 0xbed4fec5bdaf51daU, 0xbeb5ed45bede2977U,
  0x3cceeaa43c63b524U, 0x3ea3ffdcbe583f12U, 0xbe9a2298bf0c7236U, 0x3ec31908be9bff3fU,
  0x3e44eee2be36bce2U, 0x3d290bbabe8e227eU, 0x3e3d130dbe13e7f8U, 0xbb6269dfbe06e62fU,
  0xbd6617af3d6dbd74U, 0xbea38a943e95be9eU, 0xbe156cb0bd028c7eU, 0xbdbe7709bd9577a6U,
  0xbe03cedf3d2c8160U, 0x3d590f00beaff3eeU, 0x3d02413d3dcbf447U, 0xbc1815e53ecfeaacU,
  0x3dc63d6c3db44454U, 0x3e728fffbdb92339U, 0x3d7a780dbd874d3aU, 0xbe8bb9483d35deaaU,
  0x3d1c2afcbe50f547U, 0xbb928bbbbd961941U, 0xbdca31efbce6bbbeU, 0x3a2d17e03df3d988U,
  0x3e00037fbc9cf686U, 0xbe69377cbe3913a4U, 0xbe137f3f3b25fa5aU, 0x3d26937f3ced1ec8U,
  0xbe18e18ebd1cf7f3U, 0x3e4582cbbcb45906U, 0x3d56d0b63cdcccf3U, 0x3defdce73e91a27eU,
  0x3d8321e13df89324U, 0x3d026866be048631U, 0x3d7b0e793d387720U, 0x3d7664413dbf0e0bU,
  0xbe6f899b3e33e884U, 0x3d21284f3e4f0fc3U, 0xbc36add2be0fd11eU, 0xbd5a89d73c8a8b49U,
  0x3c5747f8ba506729U, 0xbdcaf9dd3bb6dd3fU, 0x3e5e0ac93c44283cU, 0x3e390e983d0fbe99U,
  0xbe9869babca8c471U, 0x3dbe6f95bcd3de73U, 0xbe2a19e6bb8ba47fU, 0xbcd475bb3d56d8f0U,
  0x3dd2528fbe177ec6U, 0x3e719b4dbd9f5f40U, 0x3ca1156cbebab12aU, 0x3e45315c3d6dc0b7U,
  0x3e2b2de5bd9051baU, 0x3ccfeb3c3e1eca6aU, 0xbdc896dfbd9f788bU, 0x3d836717be3558b9U,
  0xbd99b3753e005ebfU, 0xbe9fd4d63cab7d3dU, 0x3e75ec6b3e009dfdU, 0xbe2a54ec3c561fc8U,
  0x3e20406b3cdc2aacU, 0xbc15973bbe28a80eU, 0xbe41c10a3dafc62fU, 0x3e5bb1693ec4dc8dU,
  0xbe40f2583c96da05U, 0xbb9f537dbcf76400U, 0x3e8d1d30beb3502eU, 0x3d61e2fe3e8225ebU,
  0xbe0272b8bd56b0d3U, 0x3ed05ceabe294491U, 0x3ea079d7be2b66a4U, 0x3e5838513e7537f1U,
  0xbf3985de3e5f5e8eU, 0xbf04056c3eee0bf5U, 0xbe8b7a65be19f2a4U, 0xbe53e3e13e340abaU,
  0xbf04107abd93f525U, 0x3e9d0b263c52bc81U, 0x3ed4009dbeec4a46U, 0x3f2b27c63edabe46U,
  0xbf66ecea3ec580ecU, 0xbf10c98e3f6104c4U, 0x3c9a13a33e255534U, 0xbf1b781a3ea2939bU,
  0xbf3ed7d6beaaa440U, 0x3e7481723eadf81dU, 0x3f44f2e2bf0a9fc8U, 0x3e8879253f6804a2U,
  0xbf67733b3edb7d3aU, 0xbf310c143f4f8a18U, 0xbd86adf63eed05c4U, 0xbd3ac20a3f274ba5U,
  0xbf3ba8b0bef65f90U, 0xbd018baf3ed14f72U, 0x3e119807bebf7c5cU, 0x3de9c3303f5195feU,
  0xbf11c2a2bccf1f22U, 0xbf08400b3f14d7d1U, 0xbe9de12b3eafa1c6U, 0x3d8b3ef63ee6b58eU,
  0x3e0edf633caf468eU, 0x3d8792673db98504U, 0xbda304ea3da3525eU, 0x3e585731be9a3d75U,
  0xbd7af9023e0406bcU, 0x3e8834d3be002066U, 0xbeaadf513e18d021U, 0x3cb7a84bbe7e0cddU,
  0x3da63afa3e2d8d31U, 0x3c32d1b1be327d02U, 0x3d8679ddbeb7b50dU, 0x3ce049e5bdba0307U,
  0x3c09593ebe0ebdb6U, 0xbf3705df3ca5994bU, 0x3da03add3e4aabd5U, 0xbeb65adbbdaca6cbU,
  0x3e10254a3d659ff5U, 0x3d9d64ed3ec52510U, 0xbe5e55b5be5bb9e9U, 0xbbad651e3b015710U,
  0xbb88b3c93cb898fdU, 0xbd7a82d6bddd2394U, 0x3d9069093e199d5cU, 0x3ddfe35bbe1baef6U,
  0xbde0ecbbbe0f4c04U, 0x3e0f06d1bdba0f53U, 0x3e136528bd996641U, 0x3da109aabe6bfc34U,
  0x3e2acd2fbe8f8a6bU, 0xbee0e6993c56b9c9U, 0x3da447813be592baU, 0x3ea34332bcb89a7bU,
  0x3c7b9b10bca60909U, 0x3df267ad3eb058e5U, 0xbe58d20ebeaad6fbU, 0xbd44ba013e39a34bU,
  0xbdbe28843ea0cb95U, 0x3e89017bbd85fbf5U, 0xbe62a0923ef4c12cU, 0x3ec77057be4c37d1U,
  0xbe6c8c9d3da11254U, 0x3e991a2f3b8507cdU, 0xbba102e9becb3639U, 0xbea52d96bf800ae5U,
  0x3ec66275bf0aef9aU, 0xbe984599be044cb7U, 0xbf2419d63e117263U, 0x3ebea465bf1b3c0bU,
  0x3ebfbb22be60107dU, 0x3aba2d46bdfe4c4aU, 0xbe1a239f3cabbb4eU, 0xbe38e859be20e136U,
  0xbeb76c33bd992bc7U, 0xbe1bc17e3e332ef1U, 0xbdc71bc23e2914a4U, 0x3db7081fbe240f10U,
  0x3d6b52743bc11709U, 0xbe18c48ebe1f1686U, 0xbdc06c6d3d18010dU, 0xbe20e96d3dadd38dU,
  0x3ca0d50fbe7f2de3U, 0xbe35bd13bcfe00cbU, 0xbdde038c3c5eb9f4U, 0x3c227041be233c04U,
  0xbd12dd79be63e69fU, 0xbdae8a6fbdc5d46cU, 0xb8bf4214bd53f672U, 0x3c299a1a3ddbc65aU,
  0x3db8849e3e1ba002U, 0xbdfb853c3e99eb54U, 0xbd71125cbcccd593U, 0x3d4e783e3e3d44a2U,
  0x3e89a4d1bd6be825U, 0xbd0ddd223d63251dU, 0xbe889b0a3e193741U, 0xbccbda12bd0fa9a8U,
  0xbd12b9a43d2fdeb2U, 0x3e5c8a4cba638030U, 0x3dc00359be07ca5fU, 0x3df944bb3c9619f6U,
  0xbe2bfa503e13cf72U, 0xbd3fceb83d45b498U, 0x3e2b2def3e97614aU, 0xbdc570593e2e0715U,
  0x3d9f3590bdd7783aU, 0x3d861fb93e0d4524U, 0x3e59f00bbc8b7b6aU, 0x3d9c9e583d135508U,
  0x3d0d758c3d9df900U, 0x3ce168cb3e577614U, 0xbe6a62433c3ee532U, 0x3e22b0c33d9e45aaU,
  0xbeb4b8273e4c79feU, 0x3eec226d3e6cacf8U, 0x3e27d758bcc4880fU, 0x3dc2d1553e6bcea4U,
  0x3d84fdc93e11d809U, 0xbdfa6be9be91a7b0U, 0x3e2269123e8a83a6U, 0x3e12bee73ca9eb83U,
  0x3bc63785be90eba7U, 0xbe94a608be2818bbU, 0x3e744306bd492beeU, 0xbe6f40343e65a002U,
  0x3eae99d6bd91c54eU, 0xbed0f3833e736a69U, 0x3ea79f0c3e9aaa5cU, 0x3d940f1d3e465cdfU,
  0xbe625e4d3d15bc08U, 0x3e3f3a643dfab7c2U, 0x3e7c22cabdd5ff4dU, 0xbdfefcde3c699204U,
  0xbce7a7473d918e6bU, 0xbe210d2bbdf00f2bU, 0x3eb7bbdb3da4b7e4U, 0x3e3da513bda0e0b1U,
  0xbcb4a7493bf0026eU, 0x3d0ff0693dcaf058U, 0xbe20e972bdb5be13U, 0xbe10fddd3e30f0c4U,
  0x3e952fe3bc3781bdU, 0xbd791068bdc92022U, 0x3e5f2a843e8d3c4aU, 0x3e83e74bbdf96075U,
  0x3d1799ba3d4a7896U, 0x3e858e9ebd24678fU, 0x3e8baa6ebd4cf39aU, 0xbe94c5fe3d26513aU,
  0xbe825c4c3d28586aU, 0xbe72131abdba7cd7U, 0x3d5495f03e0b6513U, 0x3e680d923e5c36ecU,
  0x3e0cadc0bcd0ae5eU, 0x3e6ec8f5be187675U, 0xbdb9a501bdfc3a40U, 0x3e424a0c3e69934eU,
  0x3a7fed26bdbd341bU, 0xbc615ad83d9afcb9U, 0x3e14ed563c935bd8U, 0x3dddad4c3c999f2bU,
  0xbdbf01d63cff0e10U, 0x3deb485d3e6056d9U, 0x3e3d537a3d8a48faU, 0xbdabf8633e7bc666U,
  0xbebd625f3e386fa5U, 0xbe5daf30bcd4f750U, 0x3e1f7e60bc19ce50U, 0xbe1ca0283cf4a20dU,
  0x3dd55844be6284d9U, 0xbd8dfbebbe8484c2U, 0x3e804cb33c91b47fU, 0xbe0a374a3df11bbfU,
  0xbdacfe7fbbdff385U, 0xbe9097be3e5bd204U, 0x3e8cb30e3d0bbf74U, 0x3cad437c3c6dba75U,
  0xbe5f1733bd07df10U, 0xbce9de1e3dcb2275U, 0x3e770e7abd7813b3U, 0xbdc55af83baa6317U,
  0xbdcafbbf3dc54fbaU, 0xbe1c8e893e4c1321U, 0x3e6e920a3e5a464aU, 0xbdc196623e1424d2U,
  0xbdf8e4d93d65cc8dU, 0x3d952e02bdebcde4U, 0x3e48a018bca1cc12U, 0xbd242aa73e098a3cU,
  0x3c92b533bcc0a22dU, 0x3e2f0eecbdf04288U, 0xbda980343dd29bd2U, 0x3e31ef553cb1f797U,
  0xbe4addbebc85cb80U, 0x3e17b6653d56450fU, 0xbdebcf88be4a4daeU, 0xbc9d23d23ab8b32bU,
  0x3c14433f3dde16eeU, 0xbcc325cc3de808c8U, 0x3ac891dbbddd8745U, 0x3e994050bd64d7a8U,
  0xbde31d7fbdc9bc52U, 0xbc2ffd7dbe2d2774U, 0x3d96aa0fbe240f76U, 0xbb2405993e0e7db5U,
  0x3e9b27bebe1926a3U, 0xbb7cfc253dbd39e2U, 0xbcd06128bc49c40aU, 0x3e3c133cbd9e74e7U,
  0xbe6e57debc39f01fU, 0xbd9163163e6e1849U, 0x3ea103763dc73258U, 0x3dee40f43e836ab3U,
  0x3e49707f3e5867b0U, 0x3e0c6560bf13c5edU, 0x3ea2c5c73cf3ae7aU, 0xbdfd4e96bda56f36U,
  0xbcd96190bd967224U, 0xbdd307573ebb3dfbU, 0xbe29fb7bbe154060U, 0xbc06ec053dd5872bU,
  0xbeb95269b8f633e3U, 0xbdefe173bead7e04U, 0x3ea3adc53e51c840U, 0xbdf24cda3e96300eU,
  0x3d61cbe03e117586U, 0x3f21b45fbe4028afU, 0xbe06792339e8eec4U, 0xbed66b203e3bcad3U,
  0x3e60c358bea72f7aU, 0x3d5556e33d409dd2U, 0x3d7b017dbe5b130fU, 0xbe49e1e7be341f61U,
  0xbe6406bc3ebe1057U, 0xbdd488173ea62bb3U, 0xbde84fc73ddebb77U, 0xbe24ed3abd9f97feU,
  0x3ca9e75e3d5f6d4fU, 0x3eda7507bed14480U, 0x3d5057f53d80faf5U, 0xbcf771f9be5d591fU,
  0x3d87b8853c4579b4U, 0x3d9faf34be6a7d5cU, 0x3dde742dbd839d65U, 0xbe53f498bdf82a60U,
  0xbdb48a40bec680aeU, 0x3d8e3f95bd689397U, 0xbe4151a1be0946b1U, 0x3c8ab62c3dc530fbU,
  0x3e41b7c03c5f8866U, 0x3e277817beb6f0f9U, 0xbea225653d504f43U, 0x3d943b53bd810b13U,
  0x3d721e79bd3707dfU, 0x3ec37c79bcf55650U, 0x3e16741cbd65d4c1U, 0x3da0f83b3e6e1e69U,
  0xbd04451c3e503dfdU, 0xbe01b3dfbdf68067U, 0x3e378164be0efeaaU, 0xbe0a19ad3e81350bU,
  0x3e5cb7833eb7c31dU, 0x3e5fff9b3e026dddU, 0xbe51c9163d73315bU, 0xbd0bce863e807d57U,
  0xbd917f783d7679faU, 0xbe786594be8f36fcU, 0xbeb0ef333e670bf4U, 0xbc9037e8bda10523U,
  0xbdadfa87be0f0eacU, 0x3eae92693cafb148U, 0x3dbead9f3dbcc84fU, 0xbdd356503e36eed8U,
  0x3ea8aafbbdbff604U, 0xbeb65d6bbe5755ddU, 0xbdc1e7c83ebd7636U, 0x3e7447e93cddf119U,
  0x3dcf7b00bbc645b6U, 0xbd2799c33d9c4d07U, 0xbce7c6723cf38391U, 0xbd385ed43d3f12e1U,
  0x3e07d43c3e5b9d1dU, 0xbe4420203d9e61e5U, 0xbe741d3fbd0617e6U, 0x3ca39e523e145998U,
  0xbb98658b3e8200a8U, 0x3cc3f3b73db90ee4U, 0x3e1e94073de31913U, 0x3dc885fb3d0eec02U,
  0x3da44bfd3cc896c2U, 0xbe7091ebbcd49925U, 0xbe6d351e3e5fad59U, 0x3e854ec2be06fbc7U,
  0xbeaa5ad6bd8d5c5dU, 0xbe2b5264bc4a7741U, 0x3e98105c3ecadbf2U, 0xbdc86bea3dc30e73U,
  0x3e2be98fbe33ac77U, 0x3ec656efbe5c3401U, 0xbd66e36fbccc0ee8U, 0x3bb74e28bdd847f3U,
  0x3e5b1f95bc854a25U, 0xbd172f463e650cb2U, 0x3ea3db363d80912bU, 0xbdacb049be740631U,
  0x3de917c1bd1f52f5U, 0x3c49d9f43ef5ff4eU, 0xbdf2c5663ccc23f8U, 0xbd9a37a43d8ab65bU,
  0xbebc36143da47681U, 0xbd900906be6edbe5U, 0x3e822a843eb0d3cdU, 0xbe10509c3dcd515aU,
  0x3e61e686be96dcdfU, 0xbe2049a83e18341dU, 0x3ec24e1ebed95fa5U, 0x3e1a7a7f3dfa9f10U,
  0xbd511771bdca849cU, 0xbeac7fd23e9e59feU, 0x3dd448eb3df09b05U, 0xbd096c0d3df80005U,
  0xbeea6f773d6565baU, 0x3eb8277a3ede6e2fU, 0x3d8d6c24be09ac73U, 0xbe4602153dd39858U,
  0xbe8a4b153c4741c5U, 0xbe2aad78bd170304U, 0x3e90d0013eccf03eU, 0x3e11511a3ea0146eU,
  0xbd9a4b9dbe10941fU, 0x3e65e46ebdd34506U, 0x3b09f012bd8b12c7U, 0x3cc2cb103de029a6U,
  0x3eaf4920bde4c7aaU, 0xbea0eb773d958ac3U, 0x3e9b90073db8eb5aU, 0x3ba922debde002ecU,
  0x3d6dd811bc44c5b0U, 0xbe15c5883e9adf22U, 0xbe550d203d5d65c7U, 0xbcd6d873bdd86614U,
  0xbe34d7a73e885331U, 0x3d6901a93ec95e49U, 0xbede6fb53ce5eee7U, 0x3df2e817bd7ea892U,
  0x3d07a357bdf67f8cU, 0x3e68cd6fbec8e367U, 0x3b5502b33e83fef7U, 0x3d1f3ea43d885ba2U,
  0x3e3da16dbdb38f1cU, 0x3c87d75e3e2bb881U, 0xbe64db9ebd0114eeU, 0xbe5477cbbee4f05eU,
  0x3e816a73bebc39abU, 0xbf2adc983d2db884U, 0xbe6e51cb3e77b798U, 0x3dbe3c73beb12571U,
  0x3e8fe8303dec3249U, 0x3c8776a83ef02108U, 0xbf19b42ebe10c347U, 0xbe99b5dcbdb87065U,
  0xbe99cba93e9b709bU, 0x3e048cc53da88115U, 0x3e4d05f53ea13a6fU, 0x3ec4d6a2be5aa1c8U,
  0x3c0cf7db3e33124cU, 0x3c01f9ea3d28349cU, 0xbe3966b5be7bab17U, 0xbf229025bf5b5579U,
  0xbdef80f3bebb431eU, 0xbeb4f1f5bd53a88bU, 0xbecac30bbe1aaddbU, 0x3efdc55fbe0d8119U,
  0x3e6e4126be1ec487U, 0x3e1827083ec9adc6U, 0xbe8ef0f43d3850c4U, 0xbdb92f603a8d48adU,
  0xbecf5ff33e6dcb9eU, 0x3e8831393daf89e5U, 0xbdbff0a43d921283U, 0xbdb0dde4bdd34f1eU,
  0x3e86e2583e7a28cdU, 0xbe27a169bd8552c9U, 0xbcba3714be7a0f93U, 0xbee720dfbf6f6f42U,
  0x3da5e7d8be911167U, 0xbef5df28bd0a368fU, 0xbf1c66743e5055d4U, 0x3e5eb718bebdb3f9U,
  0xbe66c4aebe8ff877U, 0x3e582e4abd9b97acU, 0x3d97387a3e80f8d4U, 0xbe36a46a3beaa210U,
  0xbdd04687bdc48b90U, 0x3e55de50bdad2eb9U, 0x3e37f461bd006395U, 0x3dce2690bb9852ddU,
  0x3dcdd8cebc52b7d6U, 0xbeb8a23c3e574b1aU, 0x3d01a894be40de73U, 0xbe5dec6dbdbe828fU,
  0xbeee6f37be4af29bU, 0xbda43faa3e31fa24U, 0xbd9a57a73db730b7U, 0xbd0d5810be0ec3ccU,
  0xbe47cb37be82fb36U, 0xbe3db42ebe620dd3U, 0x3bdef5203e241907U, 0x3e4a42ea3e13516eU,
  0x3cc354ebbdbb9555U, 0x3cfb223abe2b195eU, 0xbdc49958bcf52401U, 0xbd1e50343e861643U,
  0x3cba5963bdab06e2U, 0xbe21410e3cd95bcfU, 0x3df9df58bde277b5U, 0x3d04bec83d9b864aU,
  0xbd29a74e3e643ec5U, 0xbde23e7b3e621d2eU, 0x3da32b913e180d47U, 0x3cf79e38bd7e9b4fU,
  0x3e42e9ef3df6003aU, 0xbe0d4d50be81b74eU, 0xba88ada33c121122U, 0x3e3708353dfdb34bU,
  0x3d8d9cf9bdaf52f5U, 0x3de50462be2d2355U, 0x3c1bd54fbe337c03U, 0xbee4342bbd037bd3U,
  0x3efb2c9ebe383651U, 0xbda2fcf83c657194U, 0x3f1f931b3e48df95U, 0x3e87e72b3e49e2d7U,
  0xbe1a8d223a2be0e0U, 0xbdfdbeda3e1f1132U, 0x3e9a59c23e7f107bU, 0xbe03de833e5832baU,
  0xbe50665a3d6d70d5U, 0xbe27956abd9da71dU, 0x3e80a786bd8a6663U, 0x3dc071e83e7078abU,
  0x3e0238ccbe37b3a2U, 0x3da30f81bdf7af1dU, 0x3cf7a9a43d61ddeeU, 0xbe4092343db6bddcU,
  0xbe01855ebe2290e7U, 0x3d81d8b43d6b0dd8U, 0xbd280d973de5be38U, 0x3c1f46f53c680feeU,
  0x3dc2b65ebd62ffaaU, 0xbd860a4b3d8c3775U, 0xbccea518be4d7a24U, 0xbe3535fb3d1cd387U,
  0xbec136a5bd846cafU, 0xbdfe8e133d1e5694U, 0x3c8d40093d8c85ffU, 0x3c96f1e13ddc1475U,
  0x3e0e3cdebea64fc7U, 0x3d0de3cdbeb5cc58U, 0x3dbe20d7be463191U, 0xbdb6e9f73d1de772U,
  0x3e49b94fbe875696U, 0xbee18dff3ea889b1U, 0x3e89f65dbae02a47U, 0x3e06a8d7be37511cU,
  0x3b65d0c23d78070aU, 0xbe416a253e23a0a3U, 0xbd6f23283e54519aU, 0xbdc67d65bddf3649U,
  0xbe7f51673df00000U, 0xbdf9f461be970ee6U, 0x3dbaa3993e13877fU, 0x3e274fa53da8860dU,
  0x3e4562a8be8d4effU, 0x3d8ddb0f3d16d571U, 0x3e94e375be96049cU, 0xbe62a0a8ba866993U,
  0x3f0ab814bdeb0c8fU, 0xbebe1fc93d9ed2d7U, 0x3e78c2c8bcec1f5aU, 0xbafa3b42bc7e2853U,
  0xbe5ac67a3dd8d010U, 0x3e314b143da33508U, 0x3e38aa11bd92e5d9U, 0xbe427e9d3e144064U,
  0xbe04a1833df34325U, 0x3de34d1abe0e48fdU, 0xbd137fb8bd728799U, 0x3e17ee8a3d7ac35bU,
  0x3ddfca383d2dc8eeU, 0xbd378017bd8d863cU, 0x3de57bf7be4d1598U, 0xbde606593e258426U,
  0xbcac61b5bc865bd9U, 0xbe76582e3da640e9U, 0xbca7559dbd727804U, 0x3d975b183d490c08U,
  0x3de10ecd3d008a85U, 0x3e032f9d3e51e29fU, 0xbcda3b91bdee5be5U, 0xbe23a73f3d322baaU,
  0x3d505e8b3de4b399U, 0xbe1cf114be39debbU, 0x3e9145ddbe675751U, 0x3c8a66013d483936U,
  0x3cd3f9e23df9f0f4U, 0x3e41a6363e60d466U, 0xbebf440fbd483617U, 0xbe0ae4b83d6698faU,
  0x3e676679bd185f6aU, 0x3e1b2020bef1f213U, 0x3e2aa86a3e452161U, 0x3d09ac2f3cd2e86cU,
  0x3e96d0ce3d85cebeU, 0xbdebba5a3e021a48U, 0x3d583101be13ffe1U, 0xbea64b55be2a819dU,
  0xbdef0b253dad797cU, 0xbe4a32163d2769d3U, 0x3ded87203d34c24cU, 0xbdd81dd13e00e5daU,
  0xbe01b7c7bd1ba849U, 0xbd1d38d13e424237U, 0x3ddf9ccabdd992ebU, 0xbdef02483cb4f140U,
  0x3e7b28bc3dcdf130U, 0xbdfaa9b2bd3c863eU, 0x3d2ed5a2bdb3e3b5U, 0x3d3e56ffbd1d6fffU,
  0xbd81115a3cafd8cbU, 0xbd4b4eef3de7ea07U, 0x3e5770813dad410fU, 0x3de5b8ccbd053496U,
  0x3ec51dcfbd1c5ddaU, 0x3eba077a3e938dcfU, 0xbebfaf7bbe8db1abU, 0x3dda7aeebf1fce22U,
  0xbf15f9903ca8c154U, 0x3df2f350be49b1efU, 0xbe3aed603dd518bbU, 0xbea01828bd8b7351U,
  0x3e92daf93e5dfc02U, 0xbe924ac4bc984522U, 0xbe75883bbebda90fU, 0xbe0cb20cbdd9968dU,
  0x3c29df2abee96f8eU, 0xbf8464803d49f131U, 0xbe5de2173eba1212U, 0xbe2e0fe8be8d7b25U,
  0x3e563f14be97633aU, 0x3dc7474c3e2a7097U, 0xbe557dbcbd57c3a2U, 0xbef4406c3e76cdf6U,
  0xbe0032853e19f1d0U, 0x3e006dd33e567994U, 0xbe11c4113d99bc73U, 0x3e3a2b84bea5ad20U,
  0xbe3f47153d0983dbU, 0x3eb7293c3e29ec02U, 0xbe623a423d46da4eU, 0xbf40efe3bf758f22U,
  0x3e026dcbbc76c0aeU, 0x3e453254be8330a8U, 0xbf48d3d23d970c3cU, 0x3f16092fbf0443bdU,
  0x3f0d3cecbe5263bbU, 0x3e60745fbf506597U, 0x3e91c1103e866019U, 0xbe49add4be5f4a09U,
  0x3e9ae8cfbe9560b6U, 0xbe813e6e3f1bf35bU, 0xbc952c5bbdcb7f5bU, 0x3dadee5f3e09bf62U,
  0xbe2f100e3e8b4b27U, 0xbef8e6563e3f64a8U, 0x3d8765abbe780a70U, 0xbee0967c3d80abd1U,
  0xbef2c4723f177808U, 0x3e0d06e03e0f92baU, 0xbef366b63e1c2f5dU, 0xbefb21fbbe0c7fffU,
  0xbd2dc856be21d0ccU, 0xbc3c5f033e0aec3aU, 0x3e12c7eb3d333a44U, 0xbcbc9f40bcc974d9U,
  0xbe830542be35cee7U, 0x3cf17d72bed45021U, 0xbe7c02afbe03b022U, 0xbd599d0f3c43731cU,
  0x3c2cd03ebe13ea3eU, 0xbe8e63053e819c9fU, 0x3e647830bdf14646U, 0x3da9a10d3d82be4dU,
  0xbdf1672c3da50702U, 0xbed8f4393e30a07cU, 0xbda43d223edd7eecU, 0xbe180df13e0c2567U,
  0x3e198c0d3e0755ccU, 0xbdea89683d1601baU, 0x3e2dba69bde80be5U, 0x3ea377813db1bc74U,
  0xbdba25e63e4ff191U, 0x3ef913553caeeba0U, 0xbd0303603dcaaf5bU, 0xbe96dc49be7a3c0dU,
  0x3ef291ef3d44186bU, 0x3ee582d8bed3160cU, 0x3e27ee9f3e98a2d8U, 0x3b4eb9c23d616b2eU,
  0x3ed941b9be34e5a2U, 0xbe9abfc03e8ab3f6U, 0x3e575c6abd7829c5U, 0xbe5960cf3d134bcaU,
  0x3ce9a6fabe33e6adU, 0x3d6e07fa3e48a9eaU, 0x3d32bec1be7d6183U, 0x3e5f948ebe60f35aU,
  0xbe8cfc313f057d9bU, 0x3e62452ebb1d7d18U, 0xbedd83123ee624e9U, 0xbd910d0abe85c7adU,
  0x3e1ebb0f3d517440U, 0x3e8acaa7bed635b2U, 0xbdd1c06b3ed039fcU, 0x3e352dd23de2c78cU,
  0x3e9470e3be94802dU, 0xbd6b4951bd91a78aU, 0x3eb102d3bef3051eU, 0x3d9f61b1bdf72b11U,
  0x3ece7335be261483U, 0xbe7674d4be827ad8U, 0xbeafffc03e825929U, 0xbe5e12a03ed02b91U,
  0xbe45bd50beabe4edU, 0xbed0e643bed35163U, 0xbdcdf53ebdb09321U, 0xbec038753e181bf5U,
  0x3b2ac59bbeae229bU, 0xbe2523963f0394a5U, 0x3f3dd58dbe501cb4U, 0xbe0ceb153dc4e640U,
  0x3d6abf84bdad0c02U, 0xbe8fd5463ca9918eU, 0xbe5dd8dd3f216e7eU, 0xbc8f704abe3bcb0fU,
  0x3e97ef883eabfd65U, 0x3e8a42853f0fd4bbU, 0xbee93f83bf0b59e3U, 0xbdbd49ae3d91d81cU,
  0xbf0234533e920105U, 0xbead51d9beebc5ceU, 0xbf2595653e7c3e34U, 0xbf2a1eb8bef78c88U,
  0xbec3cbe5bca9fcf7U, 0x3e5285edbe3de80fU, 0x3eb8c7953c39adbeU, 0xbe2ec139bd9109e6U,
  0x3f1bbce9bf2ceb0aU, 0xbf1e273fbed68492U, 0xbf17b8053f6524c7U, 0x3eaa04a5bf02e112U,
  0xbe4066733cbd5a84U, 0x3de6606b3e0cbdd3U, 0xbe2361b4be501f4eU, 0xbe8ab8c2bddb7777U,
  0xbd5349e2bbc01024U, 0x3e20f35f3ebf1b1aU, 0xbe1083273c084011U, 0x3e1a5345bea27eacU,
  0xbddc664e3e606302U, 0x3e30a3c03c0169c7U, 0x3bb0cc74be99cd4bU, 0xbee1f623beb9a1d1U,
  0x3e4ab313be984f2eU, 0xbc1e6fde3d922b69U, 0xbf3f3cdabc537650U, 0x3e105eb7bedfe7faU,
  0x3ee4eeccbe26fba8U, 0x3e3f74f93dfca366U, 0x3c8ae1703d226d33U, 0x3e87d1b4beadee38U,
  0xbe68c3c33d85f1b9U, 0x3ecb4314be2b4d00U, 0xbe2541a7bd9ebe26U, 0x3e07449f3ccf199fU,
  0x3d89f3f33e281a1aU, 0x3da4911c3ce1c624U, 0xbd914818be8e9a40U, 0xbcb09946be465fbfU,
  0x3e0198f9be0b488dU, 0xbf22f8c8be3960aeU, 0xbe77afbd3ec31639U, 0xbe9bf260be504b87U,
  0x3e192086be0ac7c5U, 0xbdb8c864be65effeU, 0xbd15fc99be22c7d2U, 0xbe35aa20bdbfe43bU,
  0xbcacb5b33db07962U, 0x3e02e1aabdd83897U, 0x3e0b61dd3e267026U, 0xbde6ccf3be398d4cU,
  0x3deec90c3e60beefU, 0xbea703c5be29697aU, 0xbde1b1e4be83a3ccU, 0xbd9ec1c3bd922d36U,
  0xbe4bdfffbcbf6546U, 0xbe9871ccbe02bb23U, 0x3e4b13103e7f3d34U, 0xbe14fda43cdaec62U,
  0x3d9ce1e53d9fba3dU, 0x3ec0b9f23efb64baU, 0xbe628ee2bddf692fU, 0xbe89d7983c982332U,
  0xbef472813edb48c9U, 0x3ea969bb3e4e0924U, 0xbee74c843e81b5b7U, 0x3e31bce6bef1312dU,
  0xbd8c49c53e88c355U, 0x3eef6c33bcfecf74U, 0x3c6f9db2bea63ebaU, 0xbed2988fbf7210f4U,
  0x3eff5f5ebeb7458aU, 0xbf08ef25bde19260U, 0xbf4b53963ea26184U, 0x3e4667bbbf2e1cb0U,
  0xbe7dc7ecbdc3032dU, 0x3d3622e5bd42a209U, 0xbd3bd9b93e254ba8U, 0x3d85a3e8be6ba906U,
  0xbd8db053be7d418dU, 0x3d6ee9a73d4812beU, 0xbdc8d918be4f12aaU, 0x3e76f94f3e485662U,
  0xbe07437bbd2a0d20U, 0x3d1829fc3d98cfa3U, 0xbd67b22abdb495ebU, 0xbe3eb535be549927U,
  0xbd56aed7bd07b023U, 0x3e0dcce33d48ccc2U, 0x3d3170a3bdd62037U, 0xbe0fb1493e195072U,
  0x3e2cb4c73d4e584cU, 0xbd35e7abbd0408b3U, 0x3d94b3913e63463bU, 0x3e346f753d94aaf8U,
  0x3e97d7c6bcad6d4dU, 0x3e2187bc3c04f502U, 0x3e94d82fbe607c6dU, 0xbe0e43533e102b60U,
  0x3eea8790be7d9b6aU, 0xbe3eed183e98e333U, 0x3e0d44f73e4780f9U, 0x3da63eed3e413d24U,
  0xbeb0581e3e94841fU, 0x3e10828c3e8f464bU, 0x3ce31e9e3d826664U, 0xbe6260503e864f09U,
  0xbe2aab9e3e3b0386U, 0xbe9ddbb3be9f168aU, 0x3e9f742d3e909fffU, 0x3c650ba23ddf1242U,
  0x3ee6278dbeb41bc8U, 0xbd74201a3e4de0d8U, 0x3e78fdd3bde78272U, 0xbe66303c3ea9085fU,
  0x3f1d68f9bd53096fU, 0xbea49a7c3d2ea48aU, 0x3e4533b03e5509ccU, 0x3e4c54cb3c1a148fU,
  0xbec180ed3ee85ef3U, 0x3e24abb23dd6496bU, 0x3e11e60ebcff1a29U, 0xbe6894093e98c241U,
  0xbe3a1a733db02edaU, 0xbe8804d03dc62da2U, 0xbc6f458b3e04a4bfU, 0x3d5692bb3d0f451eU,
  0x3ddc9c99bd4ca39bU, 0x3e5bfa95bee3d1aeU, 0x3e01491cbe44be89U, 0xbe4d64bbbce67c88U,
  0x3e4d8b7dbe987453U, 0xbd0ed7e13e2f8469U, 0x3e3ce1813d852ffeU, 0x3ddc4297beb6e8cbU,
  0xbd07dae33e134985U, 0xbdf2cac63d1a9fe6U, 0x3d8bde283d215dc8U, 0x3cb8f5ab3cf15089U,
  0xbe5a3ab73e3ad145U, 0x3dc5c8eabe4914e5U, 0x3e179205bdce227dU, 0xbdc0156ebdc6d314U,
  0x3d42b2563ba5d327U, 0xbdf605713e00cee6U, 0xbc12e472bd8aac63U, 0x3da680a03d020fcbU,
  0x3c315b863d124e90U, 0xbe8eda8abdff0739U, 0x3d8689b33bdd4908U, 0xbd99d2573e39595cU,
  0x3e39498ebe3dc873U, 0x3ecadacabdbf9301U, 0x3e253ea2bda3a6caU, 0xbe886837bc5b203dU,
  0x3de2c4f1be93abf6U, 0x3d88e6463e3ffb10U, 0xbd007b21be34eb49U, 0x3d8d09fa3d4ad7caU,
  0xbd5028f83d0f212eU, 0x3dbd40d9be6f4b17U, 0x3e1e1b443d4fd469U, 0xbe23ea36be2fedafU,
  0x3c4c512d3dbe9490U, 0x3d27b91dbd696085U, 0xbe42563cbbbbd85eU, 0x3e368e07bd9851b0U,
  0xbe5b72e0be2acaf4U, 0x3e353252be18bb65U, 0x3e6c235ebe446784U, 0x3df86586bdf200bfU,
  0xbd7834643e58a2d6U, 0xbd3e86603df6ab69U, 0x3c0127d53e0a41a3U, 0xbe353bb63e1537a6U,
  0x3e29d93c3e2ee5edU, 0xbc98e0f53db3ae8bU, 0x3d876b733dd77b5fU, 0x3e1ae3ffbc14bb1cU,
  0xbe3f007f3e129a45U, 0x3e575d72bccc5d80U, 0xbce1b6f2bd26f58dU, 0x3dde6dd0bc874730U,
  0x3b00d86d3e444ff4U, 0x3d3dd1c7be38be22U, 0x3c62c97fbe4bc3f1U, 0x3d220c7dbe5446f0U,
  0xbe4683fd3df78967U, 0xbc32c8993e450aeeU, 0x3c85350d3e165a66U, 0xbddfdd73bd503bafU,
  0xbda53f44bdb97680U, 0xbbbde9aebc347a4bU, 0xbda6fd783e4f14abU, 0xbdfdffe23d3ca462U,
  0xbdf3aebdbdcad6f7U, 0x3d96cc633ded89f9U, 0xbcbab74abdc8e0a5U, 0xbe725dcbbc7cc30bU,
  0x3e1f4b96be2177c6U, 0xbe0bb3843c58b05eU, 0x3d0d7b2d3e7a2286U, 0xbe1f8267be59ed7bU,
  0xbd3d4b1ebe53145bU, 0xbe37744dbde2ab92U, 0x3d9fa71b3e807fecU, 0x3e33f18e3e430f41U,
  0x3e5a01f5bdbb547bU, 0xbd376c543eb695c9U, 0x3d71d16e3d8c0a8cU, 0xbe06962d3c41e7c0U,
  0x3f3af41dbe53a5a5U, 0xbea68c803e95a0b6U, 0x3e44877a3de62598U, 0xbbb3e6c23ca2d13bU,
  0xbebda2013ded188bU, 0x3e329e4b3dbd8b3cU, 0x3e8a2c60be3dc9c2U, 0xbd1ddd233e82c957U,
  0x3eb246813e4fe7eaU, 0xbdd42667be8a6706U, 0x3d7273d73ee07e2bU, 0xbe4e68543e91e395U,
  0x3e4edc1dbe689e16U, 0xbe950af2be519c62U, 0x3ce1f82abc283f4dU, 0xbdc524193d09cddfU,
  0x3f31901fbd447519U, 0xbdd09c9e3e88f6beU, 0x3e007e683ea8597dU, 0x3e9daf353de3ec32U,
  0xbe74aeca3ed31510U, 0x3e6374903e99fb8eU, 0x3e0f3095be217e82U, 0xbddd64033d544a0aU,
  0xbe3ec6213e6220acU, 0xbebb8d71beb793a4U, 0x3e10493b3eb365eaU, 0x3e883ffd3eacc2daU,
  0x3d1d8c13bc529209U, 0x3eee48a5be569cedU, 0xbe898001bcb8db23U, 0xbd1fe0233e8723a9U,
  0x3eb7b705bdb529f8U, 0x3a90af813e822fb6U, 0x3f28bb753e8e58dfU, 0xbb30010dbea9dea3U,
  0xbdde98d03e8b999cU, 0xbe2a28fc3ea76424U, 0xbd7346513e44d640U, 0xbe55e1393cd03dc0U,
  0xbf4cac253e8822dcU, 0xbe397414be04c028U, 0x3e7b9fbc3ddb3cd4U, 0x3e0b01893edab9ceU,
  0x3eab0de4bea71d14U, 0x3f03d2f0bea82c84U, 0xbd15a057be8f4453U, 0xbd9685693e2c029aU,
  0x3e8e4615be17cb97U, 0xbebbba8e3ef96d39U, 0x3edd7d0b3e0c0bf3U, 0x3d7033c5be79a352U,
  0x3d8763e73d2a1294U, 0x3cab652e3ed4c3d9U, 0xbd2bd1f73e83ab31U, 0xbe420bdd3d0240b4U,
  0xbe513e7b3ec8986fU, 0x3e6629153d188d59U, 0xbd892832bdf42fc5U, 0xbe6af3ab3df2cd47U,
  0x3dc3e86fbd0c8945U, 0x3ea720fe3e34209eU, 0xbe8dead93d24e7e8U, 0x3f17119dbe336f27U,
  0xbe03391e3ecdbb88U, 0x3e86b223bd868369U, 0xbeaef817be642046U, 0xbe97669abf2204cfU,
  0x3ea936dabe8b3533U, 0xbd55df5dbe7e20e1U, 0xbf1e9869be120951U, 0x3e515492be44856fU,
  0x3e81cbb73e097cf2U, 0x3d960a573eda577cU, 0xbe7554a3be3aa07dU, 0xbaa9a988bc872d42U,
  0xbe882a453ed8d351U, 0xbe642c2dbe053b00U, 0x3c1564603ed0fc40U, 0xbce5a3e9bc00a48eU,
  0x3e2caf643e221035U, 0x3ebda892bd797c9fU, 0xbe9fa5103e5bbc81U, 0xbe498ddcbea7259eU,
  0xbd9182a03d3719c8U, 0xbd60d586be3b3a31U, 0xbe4e9626be59bc2aU, 0x3ecd88aa3c33fe75U,
  0xbcb15bc8bdddea80U, 0xbcb9e03c3e31ec1eU, 0xbbdd16673d6963f9U, 0xbececf813cbe979cU,
  0xbc8d49683db34a4cU, 0xbe2831b63d06534eU, 0x3eb0b61dbd3c0bacU, 0xbd85e9fe3de74cd2U,
  0xbe0374e13da46215U, 0xbcc2645f3dd8d886U, 0x3cbcc8a13d91d0c7U, 0xbe2249d1be1fa928U,
  0xbd005301bd2c1a1dU, 0x3d5799f0bd1336e4U, 0xbe9dba02bdbd9a7dU, 0x3ed6b035bd925118U,
  0x3e8ae519bc9ec923U, 0x3e0fbd1a3e297716U, 0x3d202d0b3d882f39U, 0xbe3d7258bdc29983U,
  0xbf006d173d07fad4U, 0x3d9a4b47bdb0e6a0U, 0xbe08651a3e5bc792U, 0xbdf58779be8f53faU,
  0x3d215c593e131936U, 0xbee14d373e24d0dbU, 0xbc8719c73c9807dfU, 0xbe2dce94ba6b14aaU,
  0x3e6378d3bedfe747U, 0xbe1cedf93e083eefU, 0xbe19c74f3e79dd56U, 0x3d4f0c3bbe84f4ebU,
  0xbdf55918bdc28512U, 0x3e1dff23bc929903U, 0xbe51d6853de0b51fU, 0xbe2c34d13e528121U,
  0xbdad0ae63c05a501U, 0xbd2132aabe4a8a47U, 0xbdad9b9f3e305a50U, 0x3e584c48bd9e489aU,
  0x3d01d49e3e050515U, 0x3d1edb69be3e9219U, 0x3c58b256bdd01a14U, 0xbe206236bdb950e2U,
  0xbd5b610ebe8f3db3U, 0xbe45870fbe4fd973U, 0xbd0f82fc3dc92615U, 0x3e0a9673bdf59b18U,
  0x3c7c3cca3da064c8U, 0x3e8e20453ee4f2feU, 0xbea18c4b3d3df7e8U, 0xbe0201aebe547da3U,
  0xbe10cb803e7b4c20U, 0x3d5cefe03db82eb5U, 0x3dc7776b3ea5c621U, 0x3d685acf3d353496U,
  0x3d653bc33d523ec0U, 0x3bca5f403d3c2930U, 0xbe85fe52bdfe44cfU, 0x3c59e9a4be49fff7U,
  0x3d9180f9be406ac7U, 0xbec5e4b4bb3eb3faU, 0xbcf20cb5be016f7aU, 0x3ea9951fbdb522e8U,
  0x3eb4b017bd5e50cdU, 0x3e2c56fb3e1e5944U, 0xbd949b17bd1f6f09U, 0xbe584c86bd8e5a65U,
  0x3a20fc8f3e48d596U, 0xbe2deaca3dab5ddeU, 0x39b8af373e4873bfU, 0x3d0ab2b7be3c1fcbU,
  0xbcd23235bd655108U, 0xbe0816acbe1570d5U, 0x3c564d64bcc96ba4U, 0xbe35f99e3cc728f2U,
  0x3e252d26bdcbefcaU, 0x3de3259c3ca9e443U, 0xbe2444dfbd48a86eU, 0xbd7c0d853dcd6f02U,
  0x3d89b918be48b411U, 0x3c2ce1c73df4624cU, 0xbc2625cabe8177fdU, 0xbdfbef283c85bbb4U,
  0xbe95e0a73e8a1294U, 0xbe17f8ca3dc0ed45U, 0xbe8819a9bb987595U, 0xbdf63d94bc150037U,
  0x3d2877a43d76ba03U, 0x3c1a9049be02e84bU, 0xbcede33dbe38259bU, 0xbe3482efbdff4044U,
  0x3d880db2bdcf906dU, 0xbe3ebefd3c4e577aU, 0xbdd96f7a3e07d1e2U, 0x3e18c7833b1aaa10U,
  0xbe0b09d2U,
};


ai_handle g_vae_weights_table[1 + 2] = {
  AI_HANDLE_PTR(AI_MAGIC_MARKER),
  AI_HANDLE_PTR(s_vae_weights_array_u64),
  AI_HANDLE_PTR(AI_MAGIC_MARKER),
};

