/**
  ******************************************************************************
  * @file    vae_data_params.c
  * @author  AST Embedded Analytics Research Platform
  * @date    Wed Feb 15 16:29:38 2023
  * @brief   AI Tool Automatic Code Generator for Embedded NN computing
  ******************************************************************************
  * Copyright (c) 2023 STMicroelectronics.
  * All rights reserved.
  *
  * This software is licensed under terms that can be found in the LICENSE file
  * in the root directory of this software component.
  * If no LICENSE file comes with this software, it is provided AS-IS.
  ******************************************************************************
  */

#include "vae_data_params.h"


/**  Activations Section  ****************************************************/
ai_handle g_vae_activations_table[1 + 2] = {
  AI_HANDLE_PTR(AI_MAGIC_MARKER),
  AI_HANDLE_PTR(NULL),
  AI_HANDLE_PTR(AI_MAGIC_MARKER),
};




/**  Weights Section  ********************************************************/
AI_ALIGNED(32)
const ai_u64 s_vae_weights_array_u64[1193] = {
  0x3dab26b2bc20a7d0U, 0x3dbccff6bd26fc0cU, 0x3e30ac53bdc48ee9U, 0xbdbee4b93c926df0U,
  0xbde05008be31787eU, 0x3be6bf603d263ce0U, 0x3dca7f86bce44870U, 0xbe2cadcc3e207f63U,
  0x3e061a973daefbbeU, 0x3d9a7eeabd262c9cU, 0x3da171b6be175f65U, 0x3deae24e3e2bbe9fU,
  0xbe1642f6bde43776U, 0x3dd77b16bd69078cU, 0x3d238a28bdeb0a80U, 0xbd854000be2501f9U,
  0x3b9fbf203e2c4f57U, 0x3cc14af8be17cf1cU, 0xbdccd90dbdf49bc3U, 0xbd6cbf68bd0b62b0U,
  0x3b71b9c03e239641U, 0xbdfba6dd3d275fa0U, 0xbd8d09d23a1b6900U, 0x3d83564e3da33c56U,
  0xbddce8f1be0c4b72U, 0xbd877917bcce21e0U, 0xbdaa2282bd7354e2U, 0xbc3b77503dc274d2U,
  0x3e1f5377be2b66feU, 0x3e13299f3e299943U, 0xbd05b99cbe30a04cU, 0xbe147e0abd828518U,
  0xbd7e84ee3d80e1f4U, 0xbdaba962bdb75aa2U, 0xbdd00776bdfa2ed0U, 0x3daa7b46bd5f62f4U,
  0xbdb52d30bdd2949bU, 0x3e100409bde8ffcbU, 0xbd3e68c4bcacb588U, 0xbd7f0f423c57b360U,
  0xbc23d8003ac88980U, 0x3d94356e3c221b30U, 0xbdbc1538bcc2b450U, 0xbbe4a1c0bd96cca6U,
  0xbbfdc7e0be209470U, 0xbd64bf00be054ba3U, 0x3da174de3e26c2c9U, 0xbdc02932bc89d788U,
  0xbdffab923d48dd34U, 0x3e0e62b33e1e8e3dU, 0xbde06eaebd344a04U, 0xbd86e4a43e1a110fU,
  0x3e0b42753d25254cU, 0xbd2d6afc3e2ddaf5U, 0x3c24ca00be217861U, 0x3e3259fb3cd36ff8U,
  0x3dc6d4ca3d91d02aU, 0xbe3136483c749050U, 0xbd1a97203dff193eU, 0xbd4f6f48bdd9826dU,
  0xbdece6fabde2b54aU, 0xbe24e3453d8ec872U, 0xbe13d1c83e1e7a05U, 0x3d2a3994be0668ccU,
  0x3e297e67be16d7ffU, 0x3d8e5e843c7f9bd0U, 0xbdef8c85be1b03cbU, 0xbc3f41503caebcb8U,
  0xbdd339b7be34b3ebU, 0xbddcb0213e159cb5U, 0xbdfb72c2bd268b0cU, 0xbda259f2be01352aU,
  0xbe26b1dcba6b2e00U, 0x3e3362d9be1d1dd0U, 0x3ccaf2103da0ccfeU, 0x3e24be47be2873c5U,
  0xbd98527cbe0bc477U, 0x3e170a93be0ebbc1U, 0xbdcd551a3daa16a2U, 0xbc2ef640bded85caU,
  0xbca7bfc0be219425U, 0xbd96ebac3df0ab5eU, 0xbe3434883e33045dU, 0x3b938ce03df0046aU,
  0x3d4c32f03ab6de80U, 0x3df5a296be0a3e02U, 0xbddeb769bd7c81eeU, 0x3dab81bebe289a1bU,
  0x3d5837d4bd873f3dU, 0x3ce7cde83c280330U, 0xbccd8be0be142baeU, 0x3e00fbd73d6e5334U,
  0xbdb0e8f3bc8bfdd8U, 0x3e260a21be1d0a04U, 0x3e0cbf3fbcfaab00U, 0xbe015f4dbca518d8U,
  0x3da4a25e3e1bd7dbU, 0x3dbfd05ebddb5430U, 0xbd1cd6303d6bdd7cU, 0xbbb4c540bcec4058U,
  0xbc6a3e90bcff3c20U, 0xbd8785603c02cc80U, 0xbe1b7e603dc620f6U, 0xbd9b69793ce2a4d8U,
  0xbe23d5163d8b7ed0U, 0x3dddb75e3e21f3e1U, 0x3e0db5abbe1e0430U, 0xbda9c3fa3ce419c0U,
  0xbcef9ef0bdf12277U, 0xbb59ef803d0eb26cU, 0x3c42c380be23a9efU, 0xbde3e8d73cf041c0U,
  0x3d4f6adc3e278b59U, 0xbe2cb484bdc89070U, 0xbe05c60bbdc48e7eU, 0xbd3936c8bd04d144U,
  0xbe0ce13b3e1d4733U, 0x3d8eb156bd985791U, 0x3ceebb98bd5e5d96U, 0xbdd2590ebd916187U,
  0xbc74ec603da023eaU, 0x3d6603bcbdaae009U, 0x3db32a82be2b1864U, 0xbe18bb92bd528c48U,
  0x3dea7ca23d9b1d5eU, 0x3de2202ebd6d603aU, 0x3e06d9193d740ca4U, 0x3c927dd83e0e2357U,
  0xbdf9667cbd2a7f24U, 0x3d730e843e30d31fU, 0x3cd226603e2653c9U, 0x3c99eb00bdd02af2U,
  0xbe2feb743dd99e4aU, 0x3d816e943d81b950U, 0xbe1e4568bd9d96f0U, 0x3d3eb35c3e14129bU,
  0x3e3333d93d6edf7cU, 0xbe1e79e03d0c2cb4U, 0x3b1fe0c03e2fc3abU, 0x3ab07e803dde3256U,
  0xbd17ea2c3d311e40U, 0xbe348529be05c6c8U, 0x3e2adaf7be26b404U, 0xbd6e15783e0aec55U,
  0xbd90f381be2ed308U, 0x3d307710bdfeff2bU, 0xbd9e9e72bd6b34d6U, 0x3d4e58e43c68d420U,
  0x3e176a4d3de22a26U, 0x3dec22463e0ef069U, 0x3d4cf00c3e290c27U, 0xbc84b480be2630eaU,
  0x3dee681a3cce1a88U, 0x3e1f7a593e0a5271U, 0xbcc89208bd90e2deU, 0xbe0124ca3d8ad70eU,
  0x3e2d77a53c424a40U, 0xbdef5d853d32b518U, 0x3db4201ebdc473e9U, 0x3d15360c3cc3b460U,
  0xbdf09c56bd5584aeU, 0xbd5eae6abe2f6008U, 0xbd800f15be2008a4U, 0xbdb13c53be3502baU,
  0x3da9555abe11461aU, 0x3d71f94cbd0d59d4U, 0x3e1bb6bd3db11a8aU, 0x3db609b23d896784U,
  0x3bbee4203e294f75U, 0x3dabd216badf9000U, 0xbd8209373d87b460U, 0xbbdf74a0bd6fd5a4U,
  0x3d0937e03e15ac15U, 0xbd0c84dc3cf65438U, 0x3c477b703d3e96b8U, 0xbe2b32c43e27fdb9U,
  0x3c2141f03defabeaU, 0xbdcdcb5ebddb71bcU, 0xbd5435b0bd5295c8U, 0x3e28410bbd2c4c90U,
  0xbdc8c6603c66d4f0U, 0xbe0ac5cc3d0c4198U, 0x3dbcef123ca5e478U, 0x3ce752103e2ae7c1U,
  0x3e22fd8b3cf939d0U, 0xbe2408033d568288U, 0x3d54ab84bd7b7054U, 0xbe203a0cbd7f2f58U,
  0xbe1789e9bcc74350U, 0xbd9c9138be34a21fU, 0x3e25f719bcc512c0U, 0x3dc725be3e0bd6bbU,
  0x3d4c090c3cc79608U, 0xbdb8eb3bbe339dc6U, 0x3dc0b1b6bde5a574U, 0x3d9fa26abd1abde4U,
  0xbd51dce0bda43f16U, 0xbc14afc0bd618a0eU, 0x3ddf25923dd2c982U, 0xbdcb79ed3da469eeU,
  0x3c24c6a03bd2b2c0U, 0x3dd8c70abe290f77U, 0x3e16c5333d2646fcU, 0x3e1c76edbe29ae33U,
  0xbe18d2493d802b6eU, 0xbd937d893d86e6eaU, 0xbcd50b383e0fcaa5U, 0xbe3058f53cddb240U,
  0x3def8aaebe3477d6U, 0x3dc6373a3d0fb068U, 0x3d2bb9f03e0186d5U, 0xbce5b7b03e21c379U,
  0x3bb4f6c03e02988dU, 0x3d20c730bdd83621U, 0x3d3f3664be25b8a3U, 0xbd4c3b84bdf11694U,
  0x3d8c6a5e3d406ae8U, 0x3e319413bd878e7bU, 0xbdfb9e3ebdd803c5U, 0x3dc827da3d9ffecaU,
  0xbe222cef3bd31a00U, 0xbc893a60bd719ba6U, 0xbe1ee1283d8e3684U, 0xbde76dea3e0ae211U,
  0x3ddd82fa3da8228aU, 0xbd60e776bdca4b5fU, 0xbc8717003dae0502U, 0xbe0ff23abd800fcaU,
  0xbc8a6c50bcfd4c28U, 0xbe2665d9bd2079b4U, 0x3c2ae480be1503d9U, 0xbc139df03dad923eU,
  0xbdaceee5bde835f0U, 0x3de56b2abcd31ce0U, 0xbe2c8145bbaa1640U, 0x3de93c063e192e51U,
  0xbdc728bebdcab57cU, 0x3c1770c03e0a15fdU, 0xbd5a3f4a3d268924U, 0x3d6108a8bd99a7c6U,
  0x3de2316e3d8012dcU, 0x3cf376e03d013300U, 0x3d2427683daabc1aU, 0x3d57c308bdd94981U,
  0x3dc1341abd568fcaU, 0x3db41f52bce0cf58U, 0xbe17124f3dc99a42U, 0xbd1ed4c43de95e5eU,
  0xbba5d0a03e349d01U, 0xbd9550343e1eb231U, 0x3b2c3c40bddf52b6U, 0x3d1fe824be199c73U,
  0x3e124de33e16541fU, 0x3dc9597ebd6b7770U, 0x3b3f5b00be26b3baU, 0xbc662b30be31baadU,
  0x3cb6b9283e21a6ddU, 0x3e1f98873e05ca2dU, 0xbdb782513d9426d2U, 0x3e30854b3e094441U,
  0x3de1dfc63e291b4fU, 0xbe1f32983d3c5328U, 0x3e21907dbd82d27aU, 0x3da2b97ebddb84eaU,
  0xbb2135803d9b8afeU, 0xbe1b70eebda619c1U, 0x3c08d940be0d0ba2U, 0x3e044cb73e0e6ac5U,
  0xbdcd7c8cbd69c3c6U, 0xbc11ffc0bcd1e868U, 0xbc9de0883e3204b5U, 0x3cfaf9a8bda04bfeU,
  0xbdc1b856bd21976cU, 0xbe2533a6bdc2fea5U, 0x3ca5ab483de516a2U, 0xbcb8ca80bbbcaa40U,
  0x3de833363e314cc3U, 0xbe19edc2bdb1b609U, 0xbddf24babc33d620U, 0x3e014b393d22adc4U,
  0xbd48444cbc27ed10U, 0xbe115dc83e2c8b17U, 0x3d0bc0483d607024U, 0xbe0e8f543db6e2ceU,
  0xbcd081483db631aaU, 0xbd93f2623e25eb4fU, 0x3d1786783e0dbff3U, 0x3e33b91b3d1d4be0U,
  0x3ca3e390bdc4c468U, 0xbd4db4d8bd8e0d00U, 0x3b66ff40bdad15d4U, 0x3e092097bd82a6aeU,
  0xbe2e7f8c3db49412U, 0xbe0d8673bcb72308U, 0xbc087e103e0f73a3U, 0xbc1a28b0bd380630U,
  0xbe265ea7bd37a530U, 0x3d3889003c7bcda0U, 0xbe331f1dbe1b85e1U, 0xbe285ec1bd07301cU,
  0x3de4feb63cac7f28U, 0x3e299a413dbc1252U, 0x3d7ae064bd243e60U, 0x3d2e97dc3e0996a3U,
  0x3dc67f7a3ca19fa8U, 0xbe0a539f3d33b10cU, 0xbc1f5ba03d478fb8U, 0xbc1f7350bcc80300U,
  0xbe20f33cbdf4bbf5U, 0xbe28a0893e0bea9bU, 0x3c360f603e1138a3U, 0xbd885051be190f81U,
  0xbdff19ee3dbb340eU, 0x3d93be6abe2f32c7U, 0x3daeb60e3dd7b482U, 0x3dab828abe205ee2U,
  0x3e31043dbd4148b0U, 0x3ddc14babe308d67U, 0x3d598958bc7a2ff0U, 0xbd269a903ded654aU,
  0x3c9f96803d8ad226U, 0xbe0e55d2bd38d73cU, 0xbd3f02603d1b0f58U, 0x3e033f13be012e4dU,
  0x3da225d63df151eeU, 0xbce280283e161749U, 0x3e11c951bdd27af3U, 0x3db012323ca99680U,
  0xbe18ba68be05a694U, 0x3b962100bdb50455U, 0x3d121620be0e40e8U, 0xbe2ba7213e04e365U,
  0x3db4434e3da89446U, 0xbe2a72443de4f43eU, 0x3dc67d623cc0f9c0U, 0x3e209a2f3e243565U,
  0x3c067ea03e1ad42fU, 0x3df126c23e2602c9U, 0x3e1395dfbe043952U, 0x3d5c2aa43de2a35eU,
  0x3e0b9c9d3d978cb2U, 0xbb4388003d845a04U, 0x3e31e957bdb84120U, 0x3dc64232bda536f3U,
  0xbda03b44bd154a68U, 0x3d688ac0be18cc8aU, 0xbdb0cd823c32c010U, 0xbd933c1b3d3e49e8U,
  0x3e26ab17bd3cd4a4U, 0x3d95d1a03cbdce58U, 0x3dc06fd63d7f0d38U, 0x3e06da893d913802U,
  0x3da38c2abc23c760U, 0xbd62d99e3c89b4a0U, 0x3d5c50583e000bc5U, 0x3cfeee683d49d128U,
  0x3cac1b083ca31f98U, 0xbe2cf761be068ca7U, 0x3d5fd878be1bb199U, 0x3d527858bc259a10U,
  0xbc3dc760be04b470U, 0x3e08cd6d3e3314b7U, 0x3db608cabcc0de00U, 0x3e26d1833e19fda7U,
  0x3e2810913d3592fcU, 0x3e16a1493e13f9d1U, 0x3de633aabcb9f320U, 0x3d1ef3e0be2d7b55U,
  0xbdd9a31c3e23a673U, 0xbcd78f503d8be0d6U, 0x3e1ca5673e0da1a1U, 0x3b8988a0be25f6aaU,
  0xbd5303843e02240bU, 0xbdf84240bdc1a43aU, 0xbe008759bda58d98U, 0x3df7ee1a3df2bdbeU,
  0x3d36e8f83de23ed6U, 0x3daf27b23ddd6de2U, 0x3ca549d0be21bfeeU, 0xbe2dd3ccbe02e7ecU,
  0x3db985ee3cb109c0U, 0x3d9c317abccae9c0U, 0x3e26280dbe11d53aU, 0x3e164efbbe2d05ebU,
  0x3bc8d720be05d5eeU, 0x3d119284bde82f43U, 0xbdeb2f503de65552U, 0x3dd8b9123c9b6dc8U,
  0x3e1b2d153e22d113U, 0xbd5766c03de20752U, 0x3b981d60be313ee6U, 0x3e1131573d599ff8U,
  0xbd5f490e3d8ca5ecU, 0xbd30ab903d8715caU, 0xbda06507bd92155aU, 0x3cc8f9303e2d79ffU,
  0x3e2a73e1bddda135U, 0x3db8007abd8044cdU, 0x3dbd436a3e2d0a5dU, 0x3e13b20d3e1d0fa7U,
  0x3b02f6c03d8fe530U, 0x3e1882513d619dd0U, 0x3dde55d6be074a74U, 0xbbaa5480bcdb0320U,
  0x3e26809bbe144da2U, 0xbd57e8e63ab75e00U, 0xbd40f958bdf5e9dfU, 0xbe0f90b7be298916U,
  0xbdcf6b47bd8dab3eU, 0x3dbe9e8abdf59308U, 0x3d9c45be3d03bdb8U, 0xbd79cf88be1c6534U,
  0xbdf5e97e3dc158f6U, 0x3cb9a1b8bc8cf8e0U, 0x3de41f7a3c864f80U, 0x3d3fc530bdf66477U,
  0xbd403edc3d8f45f0U, 0xbd43afe8bda9a19dU, 0xbe1f5ae13e14849dU, 0xbde907f2bc1ff700U,
  0xbd1ce7283e323953U, 0xbcca22f83b3f2dc0U, 0xbd2e8c803d37375cU, 0x3e152c35be11ef12U,
  0xbd83c3a5be2f3c86U, 0x3d90d0b43d990d6eU, 0xbc3a18f03d3bf92cU, 0x3cdc4ed8be23e727U,
  0xbb4737403d5bbc8cU, 0xbdcab587bd05319cU, 0x3dfd8f3a3e23f9b3U, 0xbd2bd26c3d144604U,
  0x3ccab5103e2dcc43U, 0xbddb4ec6bd91e3d0U, 0x3d88442a3d92f6f2U, 0xbcec97b03a1ff300U,
  0x3d8b90d83c1380f0U, 0x3d5b6df03e0bddd7U, 0xbe176dbcbdfabd7fU, 0x3dbad1e63dd047a2U,
  0x3da1f73ebdb13eb6U, 0xbd85d440bd1df958U, 0xbda0ce79bc338b80U, 0x3ce4fab8be1cb332U,
  0x3e1a42673e2bfa07U, 0x3dda0cc23d5a54b0U, 0x3de9d2623d9a2cd2U, 0xbd978c963dca101aU,
  0xbe18c91abe2742c3U, 0xbe083ca63e0c2217U, 0x3df774be39923e00U, 0xbe108c22bbf20240U,
  0xbe130f9a3dcab2daU, 0xbe141afdbd51d894U, 0xbe298a643dac7026U, 0xbe16cf423e116a83U,
  0x3e1b4ad53d97ef2aU, 0xbb0573c0bdf9d563U, 0xbddc6f1fbd27f588U, 0x3db031be3e304117U,
  0x3dd72b8e3dca28d2U, 0x3e2857df3e2bbd89U, 0x3b3124403d85219eU, 0x3d335bacbb6b0200U,
  0xbb482ec0bcd7ad90U, 0xbb3998c0bd84481eU, 0x3d930f62bdb6fef9U, 0xbd804da93d45bb2cU,
  0x3e0e95c1be2389b1U, 0x3dd64682bc4a2cb0U, 0xbe2343fdbc0a91c0U, 0xbd435b183df1d432U,
  0x3e32f45dbde4a84fU, 0xbe14cd44be1a8bdfU, 0x3e0be427bb1d9fc0U, 0x3d3ae61cbd6a114aU,
  0x3dd45fbebb801dc0U, 0xbcf77910bc3cda50U, 0xbdd06ead3ddf8046U, 0xbd835fe0bc105110U,
  0x3e1b3f933dcdeaceU, 0xbe10c7943e1577b3U, 0x3d886538bd80de0bU, 0x3d43fb7cbdcfa50aU,
  0xbdb9f10f3e0dc3d1U, 0x3d1c55943dfa45feU, 0xbdb7cfd03da03ab2U, 0xbe0931acbcaeb970U,
  0x3e1806af3cd10990U, 0xbdb76ecebd8ce968U, 0x3e13b2c53d9ff9baU, 0x3df8cd52bd83c794U,
  0xbd49b538be26868dU, 0x3ddd9cae3cfe1368U, 0xbb37b2c03e0358a1U, 0xbdd5ba4f3dc1ec6aU,
  0x3d8beae43dda1802U, 0xbd936bcabcd94b60U, 0xbd8132913d8c20f6U, 0x3e085e5f3da390baU,
  0x3d8373963da2eba6U, 0xbe1b422fbd563662U, 0xbdeed4353e0b2d85U, 0xbe32e0773db133aaU,
  0xbc375da0bb0b6440U, 0xbe17c5a1bd58998cU, 0xbb9ca7e0be327338U, 0xbd67886e3e149d4fU,
  0xbc3555003dffcbb2U, 0x3ada5080be0516b1U, 0x3dbb6ffa3c90e8f0U, 0x3d890ae23d929e56U,
  0xbd1d3d28bcdbb520U, 0x3e287d173e1dba9dU, 0x3d7709f43d9eaf12U, 0x3daa5a023ca89658U,
  0x3dd1b23ebd9e1506U, 0xbe3463f0be2f8988U, 0xbb9956603cda5cf0U, 0x3e223c9f3e340147U,
  0xbcd5e9303e13eacfU, 0x3d8d9e503d0f5fccU, 0x3c38b8503c6bc5c0U, 0xbe07e98ebd752cecU,
  0xbdecdb8ebd6fd1eeU, 0xbe32d0ef3dfbc3a2U, 0xbe123c6ebe25049aU, 0x3df68cda3e162dd7U,
  0x3c06f480bd92f592U, 0xbd266f1cbcf45a30U, 0xbd9955bbbd429834U, 0x3d883e60bdf3edcbU,
  0xbd5a01e83c653630U, 0xb9f1ae003e0b5671U, 0xbe1fea473d87706eU, 0xbe055d9a3e009dbdU,
  0x3e0757273e3087b1U, 0xbe0bd53f3df836a6U, 0xbd0b5d6cbe1d5f33U, 0x3e144e17be05a1c2U,
  0xbe2541a2bd0309acU, 0x3d8906d0bdb8d9e2U, 0xbda05b59be33ec57U, 0x3e0237933d78dfc8U,
  0xbd9186eabdeb3bf4U, 0x3ddafa7e3b5276c0U, 0x3b236cc03da9fc0eU, 0x3e1c48edbe214364U,
  0xbb7ba380bda84fcbU, 0xbbb85e60bde6dee7U, 0xbd50f8283d9f53b6U, 0xbc9e4df83d60b044U,
  0x3d50f638be0aba65U, 0x3dbb419a3e01b5e9U, 0xbc040400be0172fdU, 0x3dbd8222bd994309U,
  0xbe0a199abb2b27c0U, 0x3e234495bd522448U, 0x3e34409b3e0cb411U, 0x3e2d69fd3e14d6d5U,
  0x3e2ec799be2277d2U, 0x3e0dbf49be1ac616U, 0x3e28c0b33d6f17c8U, 0xbe2eba313c3e9060U,
  0x3caf3ba83d4c470cU, 0x3e00c61bbe0d13daU, 0x3d47ee34bdb4bb69U, 0xbe3123d1bdc77072U,
  0xbc9ac4983dabdf02U, 0xbd19e0703cb6f8b0U, 0x3c8a96203e05f56bU, 0x3e2979b5be076daaU,
  0xbd172c183d44625cU, 0x3d7538c43e2dff27U, 0xbda030b93d714a34U, 0x3df648b6bdc485beU,
  0xbdf030cabd151ad0U, 0xbe044ac83cfb7d30U, 0x3e340ac7bd86aaedU, 0x3d8a8e7c3e0bd4a3U,
  0x3d56af58bdbf4ee6U, 0xbe0e2fa63d184780U, 0xbd019fdcbe10e2d0U, 0xbe23fe69bd77678eU,
  0x3e2fa0f33e1b26d3U, 0x3d8e3ed4bd84ef81U, 0x3de8e5ae3d6da60cU, 0x3e02271dbdae5615U,
  0xbddb674dbdc9555eU, 0x3dcebb7ebc7317c0U, 0xbe095e033e21d027U, 0xbe119cec3de4e2baU,
  0xbdb9caad3e06a8d3U, 0xbe1cb31ebe298d4cU, 0x3dceb9ee3e218781U, 0xbe0a627b3ccf9190U,
  0x3b0ff5c0bd25fcd4U, 0x3de5a52a3d82f8c0U, 0xbaf84f803e174ebfU, 0xbdef7a12bc56aac0U,
  0xbe2098dbbe196d27U, 0x3d0f5c843dd66ba2U, 0xbe304d93be1f496cU, 0xbd212b3cbe1a7b7aU,
  0xbdb439423e0a46dbU, 0xbdd072d4be30a0eaU, 0x3d6899d0be21c0f5U, 0x3d076ec43d0a32fcU,
  0xbd9ede813d9c9d6aU, 0x3d315a94bdcb261dU, 0xbd699a743e22a49dU, 0x3e1211e3bd191a2cU,
  0x3d9dde16bcf8b8a8U, 0x3e094779bdb99084U, 0xbd8d97e23b835ce0U, 0xbd7c1bfabe283f88U,
  0x3e0b5a613d4a515cU, 0xbd2f7d983dd65afeU, 0x3df8b5de3e272625U, 0x3cca3bb83e2ac9b7U,
  0xbc9b1140bc66e610U, 0xbdd8ab61be1df134U, 0x3e2c48b1be13477cU, 0x3d81c248be2618baU,
  0x3ddc61623e0944ffU, 0x3ddc4e6a3c26a7a0U, 0x3dfd504e3e176623U, 0xbe2b87e5bda73f2fU,
  0x3d9a9f2ebdc60c76U, 0xbd2d68143c4966e0U, 0x3d1268e8bcf25c08U, 0xbddacfa63e24e1d7U,
  0xbdbc712b3be6bce0U, 0x3a5907003cd2ee08U, 0x3da81a3a3d13addcU, 0xbe1b40f83e1892b3U,
  0xbd280ac83d3371fcU, 0xbd21700cbb9d4220U, 0x3dc03b62bde8e43dU, 0xbe102516bd5d4b3aU,
  0x3d24f864bd1d9fb4U, 0xbd72babc3da0005aU, 0xbd9a42b33e186033U, 0x3d44dc783d26ef30U,
  0x3dce37b63df811caU, 0xbe084cca3d8a7f16U, 0xbd63cd86bcb2cdb0U, 0x3dcafbeabc37da70U,
  0xbe17bbfcbe05aef1U, 0x3dd7ddae3dac9b46U, 0x3cec7cd03de0362eU, 0xbdce23553db99692U,
  0xbd77fa48bde6c391U, 0xbe34bfe5bde63eadU, 0xbdc87a24be05b107U, 0x3ce193a8bd7aadb2U,
  0x3d5745843d989b36U, 0x3d632d68bd8564c5U, 0x3d785530bcf8db50U, 0xbdccf3d53d513360U,
  0x3c9432503e125863U, 0x3da7e4da3df2cf2aU, 0xbd953e70bd9f8defU, 0xbded184c3d7bfd88U,
  0x3da8a65ebdcf18ecU, 0x3db6328e3cdd2d90U, 0xbe06bf8dbd819accU, 0x3d950f323d9eeae2U,
  0xbcb0a0903d61a804U, 0x3d0c196cbb99b3a0U, 0xbe1f356abe25b82aU, 0x3dfe833e3be02340U,
  0x3da24a963e1af3a7U, 0xbdf51e12be2504e1U, 0x3d9b95fa3dfdc27aU, 0xbe00e44a3d3e71d0U,
  0xbdbe66f83e16e1a9U, 0xbd2178f8be32a983U, 0xbda26658be0c4b66U, 0x3db659c6be193301U,
  0xbd7b6b6cbe130564U, 0xbe2498c23d81ca54U, 0xbd04ccd03d9bd62aU, 0x3e293bb73e044a3bU,
  0x3d785608be1272ecU, 0x3de0723ebc4c4370U, 0x3dadbed2bd2fa8c4U, 0xbe096ac03dc5eb7eU,
  0x3da6f0cabc84ab90U, 0xbe2f94b93d3aaf38U, 0xbd48255cbd094c84U, 0x3e0290ebbe328ebbU,
  0xbdde88413dc2e95eU, 0x3e14fc853ddebe06U, 0xbd2ddc64bd9814e7U, 0xbe003fb53d012a4cU,
  0xbe09860dbe0d267bU, 0x3d5a95f43d9a3f1aU, 0xbd0146a03d26de00U, 0x3e16ae8dbe0e0807U,
  0xbd888df7bd55ca6aU, 0x3dd43556bdfe6056U, 0x3d8a3bd8bd88f803U, 0x3e01ce333deb9e5aU,
  0xbc07afc0bd64f14cU, 0xbdc55393be0a6a2cU, 0xbd7defbabd9b281cU, 0xbd9bd7a63d7b3078U,
  0xbdddb90dbd492ce4U, 0xbb950b20be09fd7aU, 0x3db81512ba4d2900U, 0xbde0fe00bd2165ecU,
  0xba07da00bd5d802cU, 0x3c9e4eb03e00afb5U, 0x3c97d8503dd66a2eU, 0x3ddfa7b23e21b7ebU,
  0xbd5beffebd7ac32cU, 0x3d9a2452be28d726U, 0x3d28c958bcea95c8U, 0x3e16162b3c9f4f30U,
  0x3d91b7543e05287dU, 0xba9bd580bded8263U, 0x3c9e4e983d766c20U, 0xbe0288d4bc4a92b0U,
  0xbcf1ef08bd8c2b86U, 0x3e0c33e9bdf673d2U, 0x3c5244b0bd8a9a60U, 0xbd8211f23df43016U,
  0x3d8db84c3df7bf26U, 0x3dd23e8e3ceddd78U, 0x3d8ba9cc3e2ee30dU, 0xbd545b40bcf9aff8U,
  0xbd6cc8babd63ecfeU, 0x3de3518a3e1ef8b9U, 0x3d75cf78bc2248a0U, 0xbd40da28be1a312dU,
  0xbd005f80be0c46feU, 0x3ce1df503db55846U, 0xbe08a08d3db43032U, 0xbe0f99f0bdd72b27U,
  0x3d8f56d23d17a49cU, 0xbd85a40fbd221ca0U, 0x3c633b90bd6dd890U, 0x3e34d1d3bd015740U,
  0x3cdb1fc03e295bd3U, 0x3e293197be04e20cU, 0xbe203f7f3d7e63ecU, 0x3d9a88763da220a2U,
  0xbd540d14be097f28U, 0xba1b9300bc9102d8U, 0xbe271eeebd0425fcU, 0xbdb707ae3e200657U,
  0x3aa5d2803d022eb0U, 0x3dfd81f2bccc9d38U, 0x3e299f01be0946eeU, 0xbd9a6f0c3dedc86eU,
  0x3d6a1940be32ced2U, 0xbd2043583d6fe4c0U, 0xbe13355ebdbd4b11U, 0xbdb427733dc1a9e2U,
  0xbdebd4cc3e0260e9U, 0xbc9c83383d54b914U, 0x3cc59c603dd632a6U, 0xbe08e2f4bda6c47aU,
  0x3e346e5fbd971cb5U, 0x3e0a16b33e233b6dU, 0x3e2c8255bc96d1e0U, 0xbde554ffbdc8bbbfU,
  0x3d92ae003ded854eU, 0x3e2b8f5f3def5652U, 0xbe16f7603c364e20U, 0xbe27c6a93ce9b0c8U,
  0xbdc4e763be15b1fcU, 0x3df35c86bd1cc1c4U, 0x3c967730bcf91658U, 0x3de453a63e232293U,
  0xbe050180bcad8a08U, 0x3bfd3200be347e23U, 0xb8cc3000bd9ef506U, 0x3ce2f9703d8dbfa8U,
  0x3d108be8bde5bbf8U, 0x3972e4003dd75a26U, 0x3dc7319abd90be24U, 0x3c9f04203e2f4b87U,
  0x3e033a07bce1a060U, 0xbde385943df37026U, 0x3cbd3610bdbad990U, 0xbdb81b62bd881fbfU,
  0x3e1563953d97fddaU, 0x3be9aa0039d66200U, 0x3df2566e3d3955a0U, 0x3df82a7abe272bbdU,
  0x3d994a06bdfd0d36U, 0xbe19a196be1f9b12U, 0xbe33c9c23e27e5c3U, 0x3dddc2823e09b0a7U,
  0x3dc53d6a3d8dcef4U, 0xbe2bbd9fbe2bf415U, 0x3dae486e3e19582bU, 0x3ce8e618be23ab3cU,
  0x3c16f9103e3183dbU, 0x3db930763dda36eeU, 0x3e0e6aa3bddc0962U, 0x3ceb57583e30c0e1U,
  0x3e23938dbdc059c4U, 0xbc9a8cd8bd35a01cU, 0xbd40abd43e111f11U, 0xbd9d5c29bd048974U,
  0xbdf1d480bc939700U, 0xbe28dea4be11cbcaU, 0x3e1b7639bde39303U, 0x3dcdc976be0188f4U,
  0xbdebcf7e3d2a9aacU, 0x3dd79dca3dc9e6beU, 0xbe3270d53d260ff8U, 0xbdf05f3dbcb075f8U,
  0x3e2aa301bd5c03f8U, 0x3d46dbf0bd2b2674U, 0x3e2014fb3e02d7a9U, 0x3e15443f3d9d8d16U,
  0x3db1dbb6bdb6bc05U, 0xbce316883e1f3a93U, 0xbd8a4b6cbe3033b9U, 0x3dc1ecdebe2e700cU,
  0x3d0a2d543e276bffU, 0xbcd85bc03db2f8faU, 0xbda2d392bc4dff50U, 0xbd87026e3db4597eU,
  0x3db3ae2e3d871df0U, 0x3dd7f8b23d8c4d6cU, 0x3ba1cf003b640e40U, 0xbe094f40bd82cc3fU,
  0x3d318b803d66d3c4U, 0x3dc6b636bdb31736U, 0x3e2f2cdd3e174705U, 0x3c1cd470bdac8ec6U,
  0xbdc18255bc4f0fe0U, 0xbda14feb3e29b2d1U, 0xbd48d3d4bddda52aU, 0xbdca14d13e2bdb6bU,
  0x3d82bab83d2f1840U, 0x3bae2560bdf0dac8U, 0xbd92a37b3d7bcb48U, 0x3d8c415cbdf14090U,
  0x3d8fa2febcf24070U, 0x3d1087043e135403U, 0x3d27b68c3dc6077eU, 0xbdc1023cbdf29848U,
  0xbdeef54a3e21b99fU, 0xbe09dd56bcccedf0U, 0x3b6268c03e220581U, 0xbdad75d23d293f2cU,
  0xbb892d603d2ab70cU, 0xbe1cb540be2a3829U, 0xbe1f7b543ba2c840U, 0xbe08b7ccbdf0f32eU,
  0xbe22022a3e26e05dU, 0xbc3b2550bdc5c09aU, 0xbe2533133e0f0349U, 0xbddff8483dcbbda2U,
  0x3d1664603dea6ea2U, 0xbdaae474be04a3e8U, 0x3d9b01b63df18ae6U, 0x3d3676483e1d608fU,
  0xbe25c13fbc480e20U, 0x3e091a61bd3be54cU, 0xbcda1cc8bc5e59c0U, 0x3bc252003de847aeU,
  0x3e2259533d16ab00U, 0xbdd822aa3dad05a6U, 0x3e1106dfbbe4a8c0U, 0xbd50c474bdd1f86cU,
  0xbbdbbbc0be1d6c2eU, 0xbcb581d83dbbbac2U, 0x3d9e65c6bdf82f06U, 0x3db1954e3dc9daceU,
  0x3e0456b7be0157b9U, 0x3dd459bebd3e1530U, 0xbe0edd3b3e0fe48bU, 0x3c6f05803d3f4ed4U,
  0x3de4fb5a3d778ffcU, 0x3dfa1f4e3becf060U, 0x3e1127993d9cbe6aU, 0xbca93790bdf3628fU,
  0x3d0d6510bd1aef9cU, 0x3e0d17e1bdc7f2d7U, 0xbd9cee563cf4f390U, 0xbdbe957cbcea8980U,
  0xbe0d96cdbd715418U, 0xbd41e654be05c81fU, 0x3bdd01c03e13799fU, 0xbd56bf2abc445710U,
  0x3db0ac82bcf23480U, 0x3dddaf76bceb3048U, 0xbddd7fa53dd6c2feU, 0x3c87d8683abdae80U,
  0x3e12ea61bd029c90U, 0x3db863e2bd7c1674U, 0x3cc63cc83e1eb3d1U, 0xbdab6027bd58db2cU,
  0xbc88d068bda14978U, 0xbdc4ecbcbe32cd55U, 0xbe24c5ac3e3182bdU, 0x3e24f853bd26af1cU,
  0xbe2baf673c1b0470U, 0x3e19ef8fbc8e18d8U, 0x3d9ed8a23d1618fcU, 0xbdfdef8d3c5da2f0U,
  0xbdaff63dbe23d358U, 0x3e0bd6653d80d0ceU, 0x3deea35ebe10d590U, 0x3cf6e4d03d96065eU,
  0xbda8daeb3df31fdaU, 0xbd7f718c3dbaca2aU, 0x3d9ffdda3e133993U, 0xbd3ed07c3d9c736eU,
  0x3df5784a3e0e7b0dU, 0xbd940c3d3d890276U, 0xbd365c403c5474b0U, 0x3d0d9744be261c5aU,
  0xbe3195413e2f4685U, 0x3e139bb3bd9c7128U, 0xbe09f051bdecdc32U, 0xbdb6ab29bd325b90U,
  0x3d69c8d03d10037cU, 0xbdae6291bda68854U, 0xbd74ab0839a87e00U, 0xbe1406213a99cd00U,
  0x3e2193b33d6dd4d0U, 0x3ca2f1483d69bb1cU, 0x3dd9339a3d140958U, 0x3e190a7dbdaeb4c5U,
  0xbe1cf8efbd92b830U, 0x3e19ab11bd062f90U, 0xbde5b0c4bd45ffa0U, 0x3e3402f7be307b9bU,
  0x3d816b563e19624bU, 0x3e1ac46bbddee198U, 0xbdea47083ddf759eU, 0xbdaa75923c2fb7b0U,
  0x3e266ef33e2c5035U, 0xbdc123b63de10d3aU, 0x3d349fd4be1c582aU, 0x3d45aecc3e103bcdU,
  0x3d210cc83dd56d5eU, 0xbe1902fc3d854258U, 0x3c9e9c883e2a15bfU, 0xbcefcdf03dda0b26U,
  0x3dbdc1b63e0eaa4bU, 0xbd84da55bd1fe824U, 0xbd809fe83d7fc314U, 0x3e2c53adbdcd36c3U,
  0xbd796c683e2e3b2bU, 0xbd98b307bdceb26fU, 0x3dd1fc1e3c60caa0U, 0x3dd8d3863d257ca0U,
  0xbda80b6d3e194a73U, 0xbdd5a12f3cac4040U, 0xbde8e8043d204950U, 0x3d34be80bce31548U,
  0x3e0dfa1d3db6c726U, 0xbe22d326be26a8aeU, 0x3de2b1963e1966b5U, 0x3e341f29be04c40aU,
  0x3c2a61e03df58c8aU, 0xbd32f7d43e25d619U, 0x3d56bdcc3dca4c0aU, 0x3e0522fb3d45ce7cU,
  0x3d3cd8943e1a83b7U, 0x3da1151e3e1ce81bU, 0x3d6e2a68be061ae8U, 0xbe1d2db63e08b735U,
  0x3dcff9863d7065ccU, 0x3d8f44ae3d5f2148U, 0x3e14c8df3db2cd26U, 0xbdd2798f3da35a8eU,
  0x3e01cbd73d0b4f8cU, 0x3d6657683dbd702aU, 0xbd22a414399e2600U, 0x3e068ea9be1b53acU,
  0xbe0fbb873d043ff8U, 0x3e115fd53da65296U, 0x3de51216bdae51b5U, 0x3e320b573e0e0bb5U,
  0xbde93402bc13ea40U, 0x3d8671303dfc0586U, 0xbaca4580bd8f50b3U, 0xbe1dab1abd9708b5U,
  0x3e19261f3a871480U, 0x3e1f7ad5be0b0904U, 0xbe10d5af3e20ea27U, 0x3dbd21223df21f96U,
  0xbe1b0d49bda864cfU, 0xbd7214a63e0e6813U, 0x3d24afbc3e1b4c87U, 0x3cdbf0a0bde0e387U,
  0x3e02b0a53db3e6d2U, 0x3d4796a83ded84d2U, 0xbdbe00323e17d2d7U, 0xbd5ea2163d936f10U,
  0x3d5f12403e21a921U, 0xbc8cda30bd8e503dU, 0xbdfbc813be2b3e2bU, 0xbe33f73b3e279dd1U,
  0x3d621f903e0f4521U, 0xbdd9e3583c2e0e30U, 0xbd89d90c3c406010U, 0xbdaa0639be066f24U,
  0x3e1235613e2b158dU, 0x3c44d4a03a2b3500U, 0xbc12c0c0bdc65c4cU, 0xbe30e1bd3d9eba56U,
  0x3c73c480be257b22U, 0x3e12df5dbe1191f6U, 0xbd2c28a43df34a06U, 0xbdeb4e463c1aa820U,
  0xbd3b27e0bdd78a59U, 0x3c8a24f8bdf72dfeU, 0xbcfb9580bdd7f941U, 0x3de188d63ddb454aU,
  0x3d8b4300bdd971adU, 0xbdf5e4d03cbebbc0U, 0x3d4ac92cbc2cfbd0U, 0x3dd6456e3e3379dbU,
  0x0U, 0x0U, 0x0U, 0x0U,
  0x0U, 0x0U, 0x0U, 0x0U,
  0xbe4410f2bd41be38U, 0x3e91ba643e95961aU, 0xbe953630be2c1992U, 0xbde2a85e3e7a89b4U,
  0xbe383f62be76586eU, 0x3dce7f38be554ab2U, 0xbd987adabe032350U, 0xbe90d055be36a82cU,
  0xbcd64ff03e3b8bb2U, 0x3e0138d23d9290acU, 0xbdd38fd2bdbc8662U, 0x3c22fc003e33b868U,
  0x3e2486ba3e8c6e5aU, 0x3e4694b63db55874U, 0xbde82e303e4781b4U, 0xbda919143e2fe274U,
  0xbe4a8402be61cdbeU, 0xbd5d03a83b775880U, 0xbe43c3153b90f180U, 0xbd95ca1ebe76a818U,
  0x3dd2a750be54d169U, 0x3d952ba43e8de33aU, 0xbe56c83cbd8a92e2U, 0x3e77bb50bdb017a0U,
  0x3e61f3343dbafa9cU, 0xbe680a52be73919aU, 0xbe86abb63e259056U, 0x3d5d8670be433103U,
  0x3e2e64e23dacf8fcU, 0xbc5899e03dbf5598U, 0x3e77f6103e7e3d98U, 0x3e70edfc3d42f128U,
  0x0U, 0x0U, 0x0U, 0x0U,
  0x0U, 0x0U, 0x0U, 0x0U,
  0x0U, 0x0U, 0x0U, 0x0U,
  0x0U, 0x0U, 0x0U, 0x0U,
  0x0U, 0x0U, 0x0U, 0x0U,
  0x0U, 0x0U, 0x0U, 0x0U,
  0x0U, 0x0U, 0x0U, 0x0U,
  0x0U, 0x0U, 0x0U, 0x0U,
  0x0U, 0x0U, 0x0U, 0x0U,
  0x0U, 0x0U, 0x0U, 0x0U,
  0x0U, 0x0U, 0x0U, 0x0U,
  0x0U, 0x0U, 0x0U, 0x0U,
  0x0U, 0x0U, 0x0U, 0x0U,
  0x0U, 0x0U, 0x0U, 0x0U,
  0x0U, 0x0U, 0x0U, 0x0U,
  0x0U, 0x0U, 0x0U, 0x0U,
  0xbdb62b5c00000000U, 0xbd9727aebd9ae54aU, 0x3d86e0a0bd79f12cU, 0xbd95a7cc3d3a49a0U,
  0x3da49e20bd78e5d8U, 0x3d60ebc8be200f8aU, 0xbd133ddc3e467676U, 0xbe258d923cd957a8U,
  0xbc9398f03df414acU, 0x3e39e6643e487ba2U, 0xbe0e5bd0bd05c370U, 0x3e3f48d8bc5c17f0U,
  0x3e4a2290bd2a94d4U, 0xbd962c683d8831bcU, 0x3dd4aacc3d9d1b40U, 0xbe31382cbc7e1640U,
  0xbd9045223dd9ce64U, 0x3da8f36cbe2ec6ccU, 0xbe15ad61bcf9f908U, 0xbe26a970be1d0a75U,
  0xbdb147b6be35e3ddU, 0xbcf591183e3ae7c6U, 0x3ad7d900bd07830cU, 0xbdc3b4d53e3a2258U,
  0x3cdb63f0bc87bd00U, 0xbe3577963e04897cU, 0x3e2e98b0bd96c4c0U, 0x3c1fdac03b460ac0U,
  0xbe4cca35be0673d4U, 0xbe3a52ca3d46dbd8U, 0xbe04e262bde7a130U, 0x3dbdd14c3d6c41b0U,
  0x3e037436be0e7ea4U, 0x3d8de1ccbc996108U, 0x3da49f48be19666bU, 0xbc050b70bc799210U,
  0x3ca397c83db66a1cU, 0xbe3f0ff0be00c222U, 0xbe1d8682bd82c8eaU, 0xbdfab64f3e0695eeU,
  0x3d18dae83d799710U, 0xbdb0ab38bd9e96aaU, 0x3cb67fd8be00bc8aU, 0xbdf8eb973e39b9c4U,
  0xbd877ed03e4e0904U, 0xbb80bb00bdb22594U, 0xbe4baa5cbe032382U, 0xbb9898c0be40c414U,
  0x3c6ed4203e369ac6U, 0xbd5317e8be4c2413U, 0xbd6f7680be355075U, 0x3d61cc18bd6fe6ecU,
  0x3e1ce118be15c8ccU, 0x3de1ae283d8bea70U, 0xbd6cb624bde4b8a8U, 0xbdc81a4f3e3cfa0aU,
  0xbda6cdc0bdfa93ceU, 0x3de34928bcb3ec00U, 0x3d410708bd82d91eU, 0xbe16c38cbcbeb2e8U,
  0x3dc994343e1495f2U, 0xbe39d82f3deeb068U, 0x3ca288083e55d9e8U, 0xbe35075f3de936c0U,
  0x3a2f6b00U,
};


ai_handle g_vae_weights_table[1 + 2] = {
  AI_HANDLE_PTR(AI_MAGIC_MARKER),
  AI_HANDLE_PTR(s_vae_weights_array_u64),
  AI_HANDLE_PTR(AI_MAGIC_MARKER),
};

