/**
  ******************************************************************************
  * @file    vae_data_params.c
  * @author  AST Embedded Analytics Research Platform
  * @date    Wed Mar 29 11:23:07 2023
  * @brief   AI Tool Automatic Code Generator for Embedded NN computing
  ******************************************************************************
  * Copyright (c) 2023 STMicroelectronics.
  * All rights reserved.
  *
  * This software is licensed under terms that can be found in the LICENSE file
  * in the root directory of this software component.
  * If no LICENSE file comes with this software, it is provided AS-IS.
  ******************************************************************************
  */

#include "vae_data_params.h"


/**  Activations Section  ****************************************************/
ai_handle g_vae_activations_table[1 + 2] = {
  AI_HANDLE_PTR(AI_MAGIC_MARKER),
  AI_HANDLE_PTR(NULL),
  AI_HANDLE_PTR(AI_MAGIC_MARKER),
};




/**  Weights Section  ********************************************************/
AI_ALIGNED(32)
const ai_u64 s_vae_weights_array_u64[1193] = {
  0xbc5a388cbb91ea28U, 0xbe8622093ea5d18cU, 0xbe28591fbd48a2e7U, 0xbe158294bd09c6dcU,
  0x3b80a01abda9299bU, 0xbe37b4523c6538ceU, 0x3d0b16ffbdc707abU, 0xbc11dd3c3caadf51U,
  0xbee8abbf3faaf8feU, 0x3eae9ab03f4c9b75U, 0xbeaba321bed0b2ffU, 0x3f112fd03ec19301U,
  0x3e8591bf3e0e5e81U, 0xbf1c94eabee7ca17U, 0xbf3b3accbf0ae64cU, 0x3f0bb8bbbf49c66eU,
  0x3f0f67f8be360043U, 0x3ea6300ebedce20aU, 0xbe6e510fbf258507U, 0xbf544b32bf40f2c7U,
  0xbf31fbebbe8a15f9U, 0x3d850647bee3fae9U, 0x3ed38d1cbe84cc23U, 0xbf31394e3dcfece6U,
  0xbd92a403bf41b555U, 0xbe8307eb3ead51c0U, 0xbef8e5fabeec0c36U, 0x3ec4d9023f0b20bbU,
  0xbecf4362bf3daa7eU, 0xbf022cfbbf3b402aU, 0xbebb7c6cbf791635U, 0x3ea6ae6a3e9d6134U,
  0x3ec98e8dbcc13dd9U, 0xbca425e83f2489b2U, 0x3f20708d3d85b9b1U, 0xbecf279bbee9db29U,
  0xbeab9231bf4c9efdU, 0xbf4169d63ea79d6fU, 0xbcb56a73bf246e9cU, 0x3d0d1539bee80d1cU,
  0xbeb003d4bedc451eU, 0x3f2aa69d3dee1335U, 0x3f1337c03f07df64U, 0xbf654f8fbf29cbb2U,
  0xbf1d0d4bbebcb3b4U, 0xbf2270a43ed9c3d9U, 0x3f60f66dbf1c8becU, 0x3e777711bf2ed586U,
  0xbf1fc1833f459e4bU, 0x3f1b65f5bf158b71U, 0xbeab51493ee94edfU, 0x3f21256c3ec9a16cU,
  0x3f07d06ebeddbcf3U, 0xbacb307cbe4f5f40U, 0x3ef355fbbebe5bb4U, 0x3ea727203f19ccd4U,
  0xbf0ca0063c3be6b8U, 0xbf47a113becbc451U, 0x3f39dc78bec8aa9dU, 0xbedaa27ebf3f6bd7U,
  0x3f0591323f225c54U, 0xbe67e8463ef93df8U, 0x3d24fa29bf2493e7U, 0x3f33b4ec3d8f10b1U,
  0xbf1df90a3ed3c636U, 0x3e8fe664bcc3d6abU, 0xbed491c63f4923efU, 0x3f0a0f653f695b76U,
  0x3f3d3a7fbf2360e6U, 0x3ece600abf2a2aaaU, 0xbf0c739bbe7fcd89U, 0x3f21d4ccbf71fda4U,
  0x3e794956bf11dd9cU, 0xbe44d1363d2f962bU, 0x3ea362bd3e9f68bbU, 0x3cc69a43beb2aca5U,
  0xbea13429bd9e67bbU, 0xbbb03109bd1cb1c6U, 0xbca1750abe72da3bU, 0xbe121cbdbe1a98e7U,
  0xbdc511eabe705bb9U, 0xbe1792543ea9f059U, 0x398d5c433e1a7d5aU, 0xbe24fbdf3d5880b2U,
  0xbea5d6c7bed86654U, 0xbe1f78e3bcdc421cU, 0xbe835f7bbe613e8aU, 0xbcac6d7c3d94b526U,
  0x3da56097be084c4bU, 0x3dfb6f93be2dd163U, 0x3d20a3db3de2093cU, 0x3b850733be78aa06U,
  0x3d50928cbb3b666eU, 0xbccfaca53ca5eeafU, 0x3e3d8dcbbe91fb91U, 0xbdde3e77bd7157e0U,
  0xbdad5cd6bd30eb9dU, 0xbd62b07d3e03591aU, 0xbda133d33ea98df9U, 0x3d121c50bdbfad16U,
  0xbe86a521be8ff7d5U, 0x3c8e4083be70eebfU, 0xbe170652bddb95fcU, 0xbec4d9923d90c6d3U,
  0x3e54d85ebea229f1U, 0xbe1cb0eebec924c8U, 0x3c8e7aefbc7ba285U, 0x3dcca725bcb45110U,
  0xbd00d6c63e339ecfU, 0xbd0e5021bc9fe951U, 0xbd4bdb02be77b5f4U, 0x3dbd9d8cbe2d1167U,
  0xbb95ff8fbe26f103U, 0xbe1f74f73eebb6d5U, 0xbda62219be329abcU, 0xbdcad13dbdf12c74U,
  0xbe9843f63cb984a3U, 0xbf108d62bec8ac9aU, 0xbe7b2c4f3d56fc22U, 0xbd5255d0bd5c1d9dU,
  0x3d8355943e145c3fU, 0x3da1ecf3be32b4edU, 0xbe1fa161bd493cb3U, 0xbb5e14e2bd2a03c0U,
  0xbe21c137bd3bba34U, 0x3da18a8ebe650029U, 0x3e591602bf631151U, 0xbe6e12a5beb7a1ecU,
  0x3b91803ebd0fcdb1U, 0xbeafd8af3ede1aadU, 0x3db86c0ebc90dd53U, 0xbe0b767abd6176c4U,
  0xbeac533d3cfc3a4fU, 0xbe8194f83c4a4cd2U, 0xbe11c96f3e286d19U, 0x3bd165213ecb0e7fU,
  0xbdd473a73bd81ebeU, 0x3f1ee948beb5ed0bU, 0xbef9df18beb52a8fU, 0xbe0958d43f8cc17dU,
  0xbddcf0363ee23c66U, 0xbe84f3ecbec36ef8U, 0xbe31c494bf4e052fU, 0xbec6bbd8bf3ad4edU,
  0xbe8f584fbf1df106U, 0x3f7b0b59beb57cc3U, 0xbdbaf0e6bf0cdd4bU, 0xbed623373f8ef8e7U,
  0xbf2eddf23f310ebbU, 0xbef9aa13bf0aa30cU, 0xbf3951b2bf78a000U, 0xbf01c28cbe1de601U,
  0xbf18d869bf17c989U, 0x3f3c7ea7bef840eaU, 0xbf3a1cc7bf5360a6U, 0xbf34fd073f6c4807U,
  0x3d41f4053f720196U, 0xbe6be67cbe82b148U, 0xbec1dc1dbefc032fU, 0xbf0744cfbedb57b1U,
  0xbea94c9ebdda81c0U, 0x3eb68fcdbe651e2aU, 0xbee7fc02be3c54c0U, 0xbea84d773f36e322U,
  0x3f0af4273f50837eU, 0xbed0b88ebe5908a5U, 0xbd9054b9be8f4e6dU, 0xbee775c1bca218ccU,
  0x3e4c7ce9becfda67U, 0x3f2eb03bbf08c568U, 0xbe8794a33e1d55d5U, 0xbf08fe95bbc4dc56U,
  0xbd00c09cbe97bc90U, 0x3e88e5dd3e9f8a39U, 0x3f5bee50be2bc3d3U, 0xbea1fee33e1d3b1cU,
  0xbe35fad03f13120dU, 0xbd8b437abc82035bU, 0x3e389a39bde8853dU, 0x3e66b35cbdfcf13cU,
  0xbe7f18413f2efb7dU, 0xbd0c2b193e9acb01U, 0x3e03db803f19577aU, 0x3db2b0943f562fe1U,
  0x3e7bf5553ef00087U, 0xbdd3ec55bd9d6685U, 0xbe28b9d4bce9b501U, 0x3d724d2e3ee418e8U,
  0xbdce26fbbe29f14eU, 0x3d50da11be2c53d5U, 0x3d928efd3da8f653U, 0xbe9c6acf3e99621bU,
  0x3e1e34b2be26a24bU, 0xbe6e3ffa3e543707U, 0x3e95c8abbe3e6bc7U, 0xbe922e08bebc7bdfU,
  0xbe9b179f3e11a540U, 0xbe24bea33e9ea153U, 0x3db7f64bbe0dfb59U, 0x3e49f7133c26e0d1U,
  0xbce21cf53e9f1f76U, 0xbf128e05beccdfbeU, 0x3e283eb23d0e5cc5U, 0x3e20c9d53d6d2d6eU,
  0x3e7cc1073f0e8c73U, 0x3eb83aa63ebaf83aU, 0xbe23a35b3e08ef56U, 0x3e6108b6be4a9eddU,
  0xbe6b5df8bd89be54U, 0xbccecf68be09416aU, 0xbe6be1a0be7e65e8U, 0x3e2e237f3c5f4c52U,
  0x3e8f03063f017f1cU, 0x3d2ee7debe47d60eU, 0xbe92146c3ee161f1U, 0x3e43d3f8be220e52U,
  0xbe1344673d3f4ab1U, 0x3ef95a0f3d4cd2ddU, 0xbe061d263e450db8U, 0xbe49c47c3d419178U,
  0xbe0521f9bcff4910U, 0xbca5b11b3e3596baU, 0x3e834b0fbe69ee61U, 0xbe2fe2d3becd34acU,
  0x3d77adb13eb5e478U, 0x3e69ebd0be2ebe95U, 0xbea1ba45be095608U, 0xbc8e4e56bdc9c872U,
  0xbe0de32dbda7130aU, 0xbdb45315bea1b63eU, 0x3eb69dd9bd8bdeb9U, 0xbd7fba9b3e4b3cf1U,
  0x3e83d2adbc298bb3U, 0x3e9b898f3d5e0710U, 0xbec885d2be969e91U, 0x3ea9f5273dcba759U,
  0x3dee37563ded6d26U, 0x3d8009e0bf011556U, 0xbe059a75bd1d388bU, 0xbec3bb9bbee7574cU,
  0x3e7a4a52beb0874bU, 0xbec4beb53c6f13c8U, 0xbdd93bd3bed9a94fU, 0xbf09305cbea88299U,
  0xbefcc4953ec4392eU, 0x3cd62e56be7fe2bfU, 0xbc305b1c3e94a51aU, 0xbe92412b3efe5d2cU,
  0x3d0fb2ebbc6ad877U, 0xbea0b57abe8177a3U, 0xbde28940bf05edaaU, 0x3dded6ae3e973d9eU,
  0xbcd48bc1bba08a1cU, 0x3dd82a61bed5f597U, 0xbebe10ffbe010828U, 0xbe0beeb93e1c0036U,
  0x3db3b9bcbe256d49U, 0xbe33ba423e9b6606U, 0x3e6819133da86b55U, 0xbe2a12cabc582d78U,
  0x3dcbc2b5be8b18eeU, 0xbe623dfc3d9820efU, 0xbe841cfd3d9d167cU, 0x3ea5b339bedfe6f6U,
  0x3e74c207be33a179U, 0x3c4eb42abdf50c02U, 0xbee70b30bdcc3b07U, 0x3e649afb3ee73993U,
  0xbe8eb571bf053260U, 0x3dbc1231be41dce3U, 0xbe1b9e383debc228U, 0xbe946e4c3ecfbccbU,
  0x3e6da16fbe2c29b6U, 0xbe04f9823da53dd6U, 0x3e61b304be53dd45U, 0xbe5a0146be23c987U,
  0x3c1b5e5e3e393d57U, 0xbeccce003ecffca8U, 0xbe2b856ebd8f6ccbU, 0x3d9f5339be678b0dU,
  0x3e1abe563e7cd963U, 0x3e7093d1beb4fca1U, 0x3e80517c3ef91643U, 0xbf099af1be64ddd5U,
  0xbf0768b7bf079e71U, 0x3ebfde783ef8fd92U, 0x3edd07ae3e826366U, 0xbedc224d3ebe3826U,
  0xbefacd343e942e33U, 0xbd5703063d8b7cf5U, 0x3e309daa3ec1bd3fU, 0x3eeaae863ed9c984U,
  0x3e64b8073e5cf2ebU, 0xbe8e629f3f090132U, 0xbd96f52c3e4b74ceU, 0x3f0b79d23eda463fU,
  0x3e56397f3ef906f3U, 0x3d9eec18beb011c0U, 0xb9d3c4db3eda5db0U, 0x3be37dc6beb49210U,
  0xbe2c5a3d3d477025U, 0x3db5aacfbdd80a2dU, 0x3e5db33cbf149b44U, 0xbe79e865beb4d94aU,
  0xbdb7fc04be8653bdU, 0xbe1815c73edab319U, 0x3b8e76d13ec30c19U, 0xbe8dc32d3ca133daU,
  0xbed8265ebecb4924U, 0xbecb6017bf02a780U, 0xbeabf0e2be5e9587U, 0xbec95e663eac46c7U,
  0x3de7f8febedfeb22U, 0x3e75c483be76a4e1U, 0x3e19c1113f013c04U, 0xbb257a52beaafbd0U,
  0xbe709fffbeac2c18U, 0x3dd4b71cbe1dcd2fU, 0x3ee1a952bed9bc2fU, 0xbec6d7a7be0791f5U,
  0xbde8ea6ebe9b5494U, 0xbe6fe1f13ecdb4f6U, 0x3da195e93ef44b3cU, 0x3d100276bd9ceef9U,
  0xbea3ec4fbf0125d3U, 0xbe998effbebfd242U, 0xbddf5f90bd4e9330U, 0xbef5be493eaf22d6U,
  0xbbdbef76be5e8c80U, 0xbd5a6ddfbef07931U, 0x3de8e659be4bef0eU, 0x3e82afddbda7ec1bU,
  0xbc381dfc3e342ec3U, 0xbe8ab675bcaebe7cU, 0x3d4ccd6abedbf5d4U, 0x3d7a2baabe677e7cU,
  0xbc76f8e2bba95bfdU, 0xbd6798663ef3f71fU, 0xbdb50b47be9dcebfU, 0xbe8e66b1bea7dfcfU,
  0xbebd6c263c658848U, 0xbf2ae222bf0f6abfU, 0xbe287c543a75b883U, 0xbe0a45cebcb9050eU,
  0x3e863347bdd2997aU, 0xbea870d7be905b4aU, 0x3e9273f43d4114b1U, 0x3d11d2c2be685f66U,
  0xbe97a39a3e24ea6bU, 0xbe80c193be27df14U, 0x3df692abbedb54e2U, 0x3e3f11c8bee80d08U,
  0xbe9fe3fabe2e7d82U, 0xbe62473a3eca63d3U, 0xbdf27cd93dae96b9U, 0xbe7e7eefbe87334eU,
  0xbf079976be98d060U, 0xbf195185bef90ad2U, 0xbf080225beb21ac2U, 0xbdcda0ed3e203f65U,
  0xbede2bfcbde4749aU, 0xbe2e488f3e9722c2U, 0x3d6c8b69bf398d82U, 0x3eb3255f3e762472U,
  0xbb919e873c47d7daU, 0xbeebf2dfbf060606U, 0xbedb4823bec8008fU, 0x3e90b771bdc526a6U,
  0x3ee3f84cbda77f07U, 0x3d8c33073d6fd102U, 0x3e4b8dd2bd203fe3U, 0xbe9109c83d0b0248U,
  0x3da71b24bf104decU, 0xbefbf5ccbd902234U, 0x3d355de5be3e665aU, 0x3e36a73abe3738a9U,
  0x3d725168be8e76f8U, 0xbe4515ce3c8c5237U, 0xbde948cbbdc6c844U, 0xbc51871e3e6f0b08U,
  0x3e906134bd6ada8fU, 0x3c3e27703d879c09U, 0x3be57d2d3e98b4b3U, 0xbd55e9a53e4b66ecU,
  0x3e4ed4f7be2ed5a9U, 0x3d34f35ebac3e35cU, 0xbcfad958bc9e3042U, 0xbe0e7a2d3d33dea5U,
  0xbd8b29c53e033900U, 0x3e5b4e813e1a7337U, 0x3dbca2ff3e351b98U, 0xbbd70b4abdd23f02U,
  0xbebc68bbbdf4f380U, 0x3f0257b03bb504a1U, 0xbc2aebbb3d69394aU, 0xbe6cc9a6bcf9e6caU,
  0xbeaff95bbf2900e4U, 0xbeb1c62b3e2fec92U, 0x3f048edabdab634dU, 0x3e4474583ec73788U,
  0xbe415bf83f65a841U, 0x3ea0d4f9be978871U, 0x3ece835c3ec3c68fU, 0x3f0ecc6c3e45a975U,
  0x3eeaf5463cce1a51U, 0xbdb09e1b3edaa162U, 0x3e9b2d0dbe8a636aU, 0x3e4165a4bcced548U,
  0x3e1bdaed3e91e3cdU, 0x3d9421b53e7d6ba1U, 0xbe2360393ddae3ccU, 0x3de510ab3c081aa3U,
  0xbe1de2b2be866babU, 0xbd491ce13e0a0570U, 0xbe06bfb13ece52ccU, 0xbdfc7aab3e65b409U,
  0xbc25b5ebbdece103U, 0x3e54e6b8bd9deae8U, 0x3e4b0a83be78d4b8U, 0x3dc5a6df3c0a71f2U,
  0x3e21b0f13e0308feU, 0x3e0431693d9d9b01U, 0x3e8b709f3d815187U, 0xbe7171e33d42f453U,
  0xbee41425be1c9513U, 0x3d135604be507749U, 0x3f0164d63dd594b6U, 0xbeb9e165bec44c5aU,
  0x3dc603753e67bdfbU, 0xbe2403973ef2a04dU, 0x3e56bb3a3cfc5084U, 0x3e3fbb15be4ecce6U,
  0xbe669ea73e6f95eeU, 0x3e89385ebe90a284U, 0xbe9daf1fbc26d8dbU, 0x3ef2da853ebd251cU,
  0x3eb378e2be4c58a6U, 0x3ea96de5bdf06d3eU, 0x3e792fb5bc984229U, 0x3e4e37c73dc8f8caU,
  0xbeb17aeabe2692efU, 0x3e0e2d3a3eb08e95U, 0x3e30f6cf3eb932dfU, 0xbe2843573da52de6U,
  0xbe84a038bea1948bU, 0xbe7906393dd77d8bU, 0x3ed856163c44221eU, 0xbcab5950be9b568dU,
  0xbe0d6a803e3e038cU, 0x3e391abcbedb7bbdU, 0xbe8220d7bddbf169U, 0xbd833f1bbe249743U,
  0x3e4bf4c0bc60e851U, 0x3e9701a1be3426b1U, 0x3ea2dc50be9c9ff3U, 0xbd7e69e13e5f7f48U,
  0xbe6f30ec3d877573U, 0xbecd47a5bdf4b01fU, 0xbdee0ee9beb9949aU, 0x3e821beb3e06e209U,
  0x3e5bc2083f12f8b6U, 0x3d9dca76be6479daU, 0xbe303358bd3430a5U, 0x3e7e8fbbbc3b615fU,
  0xbc5e51e23e13da69U, 0xbd3518653da3d72aU, 0x3cddb76abd6df8d6U, 0xbe613bf1bdbfc074U,
  0xbde8956ebe1a0929U, 0xbdb21de1bebde0f3U, 0xbddd7c70bd64abc1U, 0x3d758e6bbeaba625U,
  0xbeda8072be571d2aU, 0xbed596273d49b813U, 0xbbc1f9fbbefa87c2U, 0x3e78bf333cd30928U,
  0x3eae2cb53e6bd28aU, 0xbec4159dbe919d69U, 0xbee24f66be844aa1U, 0x3ed917eabdb0a786U,
  0x3e8a3488bdcaa113U, 0x3e1e907c3c91f267U, 0x3d651c01bdf82a53U, 0xbe092a76bc8b9d8eU,
  0x3da8503fbdf5a665U, 0x3cb6b9e3beac5941U, 0xbe4a5562be0979ceU, 0x3b33163ebeb4c2d3U,
  0x3e59914abe60c1f7U, 0xbd035945bebc5535U, 0x3e622d2d3e95fc8dU, 0xbe7947f13dd8c34bU,
  0xbdffbc3b3eaaac05U, 0x3f2948f83ef0446cU, 0x3cdf23803f11d9a1U, 0xbe9e8cdebe2ec04cU,
  0xbc9cc6e8be3f21ebU, 0xbeb1ff85bd4adaa7U, 0xbe802e0fbdbfdc6fU, 0x3e317ac23e9a50c7U,
  0x3e7983073f3219ffU, 0x3e8f098e3e596380U, 0xbdb528333f0f7bd4U, 0x3eb88f3b3eac3cafU,
  0x3ddaa2693f68d1ecU, 0x3dacb3563c15b0a6U, 0x3d6792c83ee9bd34U, 0xbeb90f44bcaf2310U,
  0x3d0aecd63e7d8e1eU, 0x3d8d328a3e1324ffU, 0x3f24d1303e97e5f5U, 0xbea112983e0bd35cU,
  0xbe9cc9d63ef8ea1aU, 0x3dcd8333bd504834U, 0xbe1028763e5c9de7U, 0x3e98dd773dfa45c8U,
  0x3ec5838d3e190738U, 0x3e2c17ab3e274209U, 0xbe294d793deab6d8U, 0x3e29c6233e1e2671U,
  0x3d41c5f93e27e8deU, 0xbe4367bbbd92cee2U, 0xbe9ed5d6be63f450U, 0x3e909dd03e2c7008U,
  0x3eaf772c3e69eca7U, 0x3e7a5b56be23992fU, 0xbf08c72e3eb3a6fbU, 0xbed30e7e3e8663a1U,
  0x3ed3f4ecbede0545U, 0xbdfa07fabe54d660U, 0x3dcc05d73c9f3a5fU, 0xbec6585cbde13233U,
  0xbd4bd6ef3eddec10U, 0x3ed416393e9c67dbU, 0xbde31eab3e165c58U, 0xbe0a30d8bc95db5cU,
  0x3dc4e414be129754U, 0xbeb49d54bea8a260U, 0x3eea2cb43da348abU, 0xbe10bffdbc8c1332U,
  0x3e4204443dbb461bU, 0x3f07815d3e8b0c1bU, 0x3e43a9223f2cfaf1U, 0xbe26c0c83f070497U,
  0xbe7e226a3d8fd70bU, 0xbd4dde313dfd12acU, 0x3d713d783d927cd4U, 0x3f0e52c03ece8aaeU,
  0x3f17e7293e89ad03U, 0xbd02d7643e4535f0U, 0xbe56c1e33ec011d2U, 0x3e921e23bec6c1b8U,
  0xbec57fbc3f1ba634U, 0xbe71b1b93eb93948U, 0x3ccd851bbeb04850U, 0x3dd16012bc86cc71U,
  0x3eddca6e3effa72bU, 0x3eb0b5703cc7c302U, 0xbe4c7a423c216097U, 0x3e3b0e30bec149c3U,
  0x3e5f46f6bcb4992fU, 0xbe2bfdf3be577205U, 0xbe77ee5ebd0c6ccbU, 0x3c9925dbbdf21ce7U,
  0xbe58a231bd288b09U, 0x3f435b48be5f211cU, 0xbdf5e7073e671582U, 0xbe27022cbd9093d2U,
  0xbeae3bffbf17b66fU, 0x3f0a92413ef7e4cbU, 0x3eb7faed3d89a2b4U, 0xbe6cf4e3bde6cef6U,
  0xbe07470d3e01e701U, 0xbeb4ce82bba31daeU, 0x3e790aefbe884d17U, 0x3e5c4bd5bf0fd4faU,
  0xbe8445013e791446U, 0x3f037a46befaa2fcU, 0xbeb77a81be8419a3U, 0xbd908d983e2303ffU,
  0x3e64e0dabeb1a9e2U, 0x3eee060abeaf5e69U, 0x3f1b1167bd288dd6U, 0xbea518473f22eae8U,
  0xbd2fe184be10a93dU, 0x3e0b9c7f3e780864U, 0xbe7617dbbf228e4aU, 0x3eab50f23f063217U,
  0x3ececd6dbe4cdbbdU, 0xbed57545beb65cf2U, 0xbf3d84e53dd12708U, 0x3eed857fbe18d168U,
  0x3f1bfcbabe9b0128U, 0x3e937f76bc5f2f8aU, 0x3e51c50dbeeedf8cU, 0xbf0c4048be93c96dU,
  0xbec5e229bda6900eU, 0xbe81bc76be63715fU, 0x3e940232bdd4fd8aU, 0xbec77c1fbeaf5afcU,
  0xbf03bbd9be985f70U, 0xbe85e7a43eae5a0cU, 0xbeb56a76bf75c4f6U, 0x3eea18c63f2f6c22U,
  0x3e8649b43e9ea945U, 0xbea80849bf0f47caU, 0xbf2447c7beda0bf8U, 0x3f72d1ab3c93c045U,
  0x3f02b8463dea9dd0U, 0x3e923571bcf07954U, 0xbded33ddbe42830cU, 0xbea0becabf055aacU,
  0xbd9b079fbea45839U, 0xbe457a05bdf417b4U, 0xbe6fba99bf18de5cU, 0xbea8f27bbf83d85aU,
  0x3da04022bf2f4179U, 0xbc972a043d9b6a1bU, 0xbf11e821be71380bU, 0x3f0b4ee73f2fceeeU,
  0x3d44cafdbf0ab348U, 0x3eb364d4bef431ddU, 0xbeb9ea7e3eb5d84cU, 0xbf070bec3ea84c05U,
  0x3ecd58a6be28b76aU, 0xbe9514a63bc4ad01U, 0x3ec5eb40bd94027dU, 0xbea597ccbe8c90d4U,
  0xbe2380e13ed1fce0U, 0xbdfb56e93f27f1d3U, 0x3e76069f3dacd321U, 0xbead7b403e16fc4aU,
  0x3c83173d3e9b5052U, 0xbe8876dcbdd550aeU, 0x3ea7b5b43e2f5c6bU, 0xbea9ef1ebde47162U,
  0x3df64e6c3efd638cU, 0x3d20e0ab3e9a7876U, 0x3e18707c3e96d154U, 0x3da81305bc13f244U,
  0xbe871fcf3e3879c3U, 0x3e6c1cc7be7517c7U, 0xbe5903053e419316U, 0x3ef8bd3b3ebed45fU,
  0x3f124edcbe130979U, 0x3ec062023b0e8cafU, 0xbe4f036eb9adab68U, 0x3ea207a0be44f014U,
  0x3e4a74a83e10605eU, 0x3efa39bdbe433d24U, 0xbd8451083ebc0731U, 0xbe45c8523e235cf0U,
  0xbd87f4f7be3bf466U, 0x3e562b413e5078a0U, 0xbca382e43eabc4d6U, 0xbd8d4b2d3d185cd7U,
  0x3e1a5edf3e36779fU, 0x3dd74dbcbe554b79U, 0x3e77f1e93d58b4dcU, 0x3e1a3d8bbe22ba17U,
  0x3e1ec4143f07fbefU, 0xbe2fc4c03e9dae89U, 0x3e8270ad3d911b93U, 0xbe03755c3ec24e48U,
  0xbd739f753f049603U, 0xbdeea4aabe4e7977U, 0xbd952513bd94d84cU, 0x3d38f09a3ce8edf1U,
  0x3e25b8103df24794U, 0x3ea9ddc93d5c1135U, 0xbd7330293e91ee3bU, 0xbda540543e97ea7aU,
  0xbe41d8373dbe599aU, 0xbe8f7bc3bdc89472U, 0x3d6ae0563df93a08U, 0x3da6484c3e9076b1U,
  0x3d8759d93df06f80U, 0x3e61f30c3cb58d60U, 0xbe0cec013cdb4fd2U, 0x3e479d7ebe981586U,
  0x3da4fceb3eb72b51U, 0x3de97769bd8e9609U, 0xbeaf9691be20fdb5U, 0x3e42aa6a3e4bef3eU,
  0x3d6eb2953d759cd5U, 0x3ee14038beaa71b6U, 0x3e151864be53f2d7U, 0xbe2f16503d941147U,
  0xbd2fda8d3d45a9d7U, 0xbb6670eabd9cfd0aU, 0x3dd520763d23fae6U, 0xbe9fb3a33cd4ecb6U,
  0xbdb9b4d13eae3b04U, 0x3d9727e93e21b2e7U, 0xbd999dfc3ee60f24U, 0x3e0d6df33e85ee82U,
  0xbc8f1f673de2a5c1U, 0xbead8c6bbdb4aea7U, 0x3e74e6c2bed3b678U, 0x3e5a7ee8be59906fU,
  0x3e7873c63efab592U, 0x3ea211d03e7a0131U, 0xbd2f3feb3e0ddd03U, 0x3edfb08b3da84ccfU,
  0xbe3e843a3e0d53e0U, 0x3e30217ebe07ce3cU, 0xbe527fb73eab6a7bU, 0x3e95e2503da10685U,
  0x3e882cf4be8a50c0U, 0x3f1991f3be9ab8e3U, 0xbea7914a3e48a0adU, 0x3dcfe53bbebe6440U,
  0x3e1cd613befbddadU, 0x3e04fdfa3dbb3905U, 0xbe09c4fb3e87aefeU, 0x3e1cc3383e3f2416U,
  0xbd500f27be914b85U, 0x3e9fcabdbe4bb758U, 0xbe2df1863e589cd8U, 0xbe9ab21c3dd11266U,
  0x3d8ff076bd80d632U, 0xbd927a143cc49079U, 0x3e41b576be4c9583U, 0xbceaf9cabd89c1d8U,
  0x3e4b547a3e136e38U, 0x3e0081163ecdc64aU, 0xbdc7a3c73d9d0b39U, 0x3a9086c23d753b3eU,
  0x3c8b04bb3d94256eU, 0x3d3445cabe3b48eaU, 0xbed8746bbee21745U, 0x3e61d8ea3e55f80cU,
  0x3e7f0a843e434962U, 0x3d97f92d3d3d4ab8U, 0xbe5c9861bdaaf7dfU, 0xbdc326c13cb84cffU,
  0x3eb1fbd7bb202595U, 0xbde839a73dc6cda3U, 0xbe00e9aabe0186bdU, 0x3c25c0c7bc48a4a1U,
  0xbc9cc6833f18d5d3U, 0x3bc8c2db3d732abaU, 0x3e6ad2983d0216eaU, 0x3da07fb6bdb4292dU,
  0x3e87d46b3e07b874U, 0x3e9db0d53eb78c3cU, 0xbed77fb33e27e1e1U, 0x3eef65113eb0984eU,
  0x3eb853bd3db16bf7U, 0x3e55d3a43d5a449fU, 0xbedab2bd3f1d9a45U, 0xbe0e0ecebd1b14e4U,
  0x3f167428bec17d2bU, 0x3e2e8f20bead6dddU, 0xbe1f20e8be5308f6U, 0xbed78f3bbf0b9f6bU,
  0xbd5470ca3e8efc73U, 0x3dcf5f4fbe467eceU, 0x3e91a9db3e4a9cbaU, 0xbf1bd6cebd783dd5U,
  0x3eb924a83ea08083U, 0xbc0bd023bde147afU, 0xbf308f20be1f2308U, 0x3e08377b3f1de984U,
  0xbe8557fdbf02e733U, 0x3e2c1edfbf0223b8U, 0xbe6c6fa33b176f06U, 0xbf17f72a3f13430fU,
  0x3ecb42d2be1ab994U, 0xbec409a83eed859fU, 0x3f0d1b30be9639e3U, 0xbf03a9d5bf169335U,
  0xbed2e7623eb5955cU, 0xbf32fd6b3f4e7c96U, 0xbe8b334e3df2776cU, 0x3e90cbe8bea795cdU,
  0x3e4763bf3f21fc0bU, 0xbe1646123dbf693aU, 0xbe145622be627318U, 0x3d8132df3df3edd8U,
  0xbf000d71bf27f2adU, 0xbe971892be61ff7aU, 0xbf215675beaf0c3cU, 0xbdca1333be3f0f2dU,
  0x3e89a89ebeff4474U, 0x3d80c7e03eb38945U, 0x3e2994eebe1fa526U, 0xbef8ec91beae768bU,
  0xbf052b74be308e94U, 0xbf0267dc3eb6a195U, 0xbe483bf8bd31e9aeU, 0xbe3fe0ebbdaf48b5U,
  0x3d168848be5eeda3U, 0x3edb81953d9ea547U, 0xbc4eb4443ef7334dU, 0xbe3ed6fdbcff172aU,
  0x3b7d6c37be2b84b1U, 0xbe69b5aa3c7d7720U, 0x3ed72c7abe834382U, 0xbcba800ebf0e21efU,
  0xbe0ee7863e9478f8U, 0x3e816086bebedbd1U, 0xbdb7796fbe616bafU, 0xbc4b2f5abe4ec3ffU,
  0x3d24e60a3e75bbabU, 0x3dbb7362bdd8f0c0U, 0x3eb5387a3e84683dU, 0xbe80f0213e9f9597U,
  0xbea1b53c3e2a49b2U, 0xbdc9368b3e2dad06U, 0x3f3ae0debe2b9a0cU, 0xbe5bef0bbec82a82U,
  0x3e594ba73ed0b3f1U, 0xbeffe6913f16a743U, 0x3e091ac7be366be0U, 0x3f103014beb6d0b9U,
  0xbec64a5f3e0ec553U, 0x3eccbb66bebf5c0cU, 0xbea2369b3ef6b540U, 0x3f0059db3f2d9965U,
  0x3ef855edbe7fd188U, 0x3ede0f50be4ca734U, 0x3d3e7031bedebe69U, 0x3cc49d91bed5c00bU,
  0x3df053f4beefdaceU, 0xbee2eea6be36a93fU, 0xbe279e67bec225d4U, 0x3e3bb3353e6d833aU,
  0xbcd8f019bd30ed07U, 0x3deb760abe993734U, 0xbb4450f4bd3a90a6U, 0xbd82d3343e8e38f0U,
  0x3e01cbe0be3dacdfU, 0xbe0e5b433eb60ff8U, 0x3e807b553e7d1b2dU, 0xbe85a7073d3aec65U,
  0xbe3a1ce43d82e0daU, 0xbebbcb883ec20369U, 0xbe5beccb3e019a16U, 0x3e1b0d08be1e8594U,
  0xbe83c6993d2a3747U, 0xbe98e0c43e50110dU, 0xbef5fa9abf2c3b3dU, 0x3e6a3aa73e806b3aU,
  0x3ee821a53e3ba1a3U, 0xbe88bca1bea70927U, 0xbeb19894bcadcde1U, 0x3eaa40533e8c7fb4U,
  0x3eb304e53dd658d8U, 0xbdbd10693e9e12eeU, 0xbc8f0f40bd4d6304U, 0xbde610adbe5653f7U,
  0x3d96c06dbe8f5760U, 0xbe7996993db72777U, 0x3d1b323dbd68e657U, 0x3d2b2247bf054ed1U,
  0x3e30d288bebd2699U, 0x3dd70fe7be6488f9U, 0x3f2b855c3f09c59eU, 0xbeb79631be32b5f1U,
  0xbed1cf58be4eb3f6U, 0x3e2da3a63ed0ed91U, 0x3f2207de3e5cd086U, 0xbe01b92e3e823691U,
  0xbec6cefa3ea13a4fU, 0xbdc37bed3d27e92aU, 0x3e2e94f23eaed3d5U, 0x3f10f63e3f11dc44U,
  0x3ea4dbaf3e8d0853U, 0x3e2a68303e5122b7U, 0x3d4f0ef33e25c0c7U, 0x3e9b8f4c3e905169U,
  0xbc8575063ed36ff0U, 0xbdbf3fd43e6f96bdU, 0xbec405b33e536d8fU, 0xbefbb0f33dd54d10U,
  0xbeae519bbf03ef8dU, 0xbea9f220bed8a975U, 0x3e3f6a54bf1630d3U, 0xbd8c8cbabb042ddaU,
  0xbdbf8dad3eeddf45U, 0xbbdbfee73ec7ddfbU, 0x3ecfb0ec3df25be4U, 0xbe2c6aba3ea3d7bcU,
  0xbd27b02dbedeca9dU, 0xbf63d9ee3f0b2098U, 0x3d950a1cbece4119U, 0x3f0a93e13e8e6c5cU,
  0xbedd60853ea2bc69U, 0xbecce833beaddb65U, 0x3f0548b4beb462bcU, 0xbeb2f3acbf03d093U,
  0xbddb1a81bd8b1a0dU, 0xbebb9e1a3e0a04e0U, 0x3de17262bf0f31c8U, 0x3ebc72353e9d1334U,
  0xbf2087a53f09228cU, 0x3cd2556d3e8eb962U, 0x3e11afc93f1c3731U, 0x3f5dbb243f070b60U,
  0x3f18e9e9bef39712U, 0xbe303048bc0ee920U, 0xbe42d4f3bea3929dU, 0x3f5b4fabbf26fcd6U,
  0xbe9939aebeb05865U, 0x3f22f4fd3d65b601U, 0x3ee756aa3e5c3f1eU, 0xbf63df82be78ec17U,
  0x3e418a983ddfdba7U, 0xbe99e19d3f199957U, 0x3f3736b83d9bee1aU, 0x3e49a31dbde9d0e5U,
  0xbf0a24983f33bab2U, 0x3f1bfbb2bf262cb1U, 0xbe5abdd43eceaa95U, 0x3f352dae3f03c21bU,
  0x3f7a62cf3d35e63bU, 0x3f16a309bdeeda3fU, 0x3e3f202d3dace539U, 0x3e9cd6193efae268U,
  0xbecb4a86be1178f9U, 0x3e125e84bd874203U, 0x3ef6dac23e967663U, 0xbefbc88abebcc53bU,
  0x3d9575ed3d87b6a8U, 0xbe3d56783ebe879eU, 0x3f08c6c33e25a749U, 0x3ea44f3cbe8787beU,
  0xbead77ce3f0f7de4U, 0x3f08a74bbed8df23U, 0xbe3834a33e154547U, 0x3ee68f3f3ee86449U,
  0x3f0f5ef83d9091faU, 0x3edeb60abec980edU, 0x3c83719cbe379782U, 0x3e00fcb53e1a2854U,
  0xbef650edbc222fcfU, 0xbf199d0cbebae54fU, 0x3f014bcabf527847U, 0xbefbde19bd2e4098U,
  0x3b79c15cbdc1be84U, 0xbe8eb5943d1f389fU, 0xbd11a35ebe1e4565U, 0x3f17ae243e9edf2eU,
  0xbf0383793ec9e562U, 0x3e924aa83e678c08U, 0xbd07346b3eb82290U, 0x3ec6ca313ee45512U,
  0x3f0a729cbecacc25U, 0xbd844f13bc7d3cd9U, 0x3c976b40bec62135U, 0x3f273c92bf89ee07U,
  0xbe0c5049bf06348cU, 0x3ec484bd3eb4dcd0U, 0xbe9ef63bbd26c444U, 0x3e80b2e23ed9b3a5U,
  0xbf068d57bf017172U, 0xbee75b65bf00d47eU, 0x3e09e47dbe683202U, 0xbd311baebee0492cU,
  0x3f05c7b73e14ba66U, 0x3defc3f0be0fef2aU, 0x3eb829d4bea01a08U, 0xbee14f1abeeeff0aU,
  0xbea5029dbdd6011aU, 0xbed150fd3ea82d45U, 0x3ebd8d32bea8022cU, 0xbe77cb453e4e9876U,
  0xbeb1d1c1be889dafU, 0x3e751809bc56ed33U, 0x3e7fa1d03eb4efdcU, 0xbdf21757be9c80cdU,
  0xbe2c79453d69d88dU, 0xbdbd1d753eb29ce4U, 0x3d2b7fafbe5f2ae0U, 0x3e98ef20bd5300baU,
  0xbe84418a3d520d31U, 0x3ea83da1be6b6877U, 0x3ca0b1873e97d63eU, 0x3e0119bc3ea9b8d0U,
  0x3e9eb06cbdc513b5U, 0x3ec31d5cbeac3706U, 0x3e8fcfbcbcad21deU, 0x3d2ff0113ed0195fU,
  0xbe7025d6becafb18U, 0xbdb91c503e61d85fU, 0x3e0d538dbe20b0abU, 0xbec58829be44c46fU,
  0xbe27c840beef2817U, 0xbde2fe6d3d3a1063U, 0x3eaf4c31bdba1492U, 0x3d974ae83e8b7797U,
  0xbe9970643edb08afU, 0x3e7b772e3e04247cU, 0x3c96db963edb0bffU, 0x3ebe643d3eb0c91bU,
  0x3ebd2082becce5beU, 0xbe4934fb3e9750b2U, 0x3e6dde5dbed2ccfdU, 0x3e1bbda5bea26bb3U,
  0xbd44dd90beb02494U, 0xbdcc65eb3e86d8e2U, 0x3e28f0003e558fa6U, 0xbe5fe105bcd659e5U,
  0xbddf7d5bbe1f0c3aU, 0xbb5610dabdf4dda9U, 0x3dcc956b3e9f736fU, 0x3e09327f3cc00780U,
  0x3dd29a9f3e0fcaffU, 0x3cf40f01be832e85U, 0x3e3e19f5bd606e5cU, 0x3d8051b23dac2688U,
  0x3e105964bded1ac5U, 0x3ea4c5723f0718d5U, 0x3e5ed8fabdfc5c35U, 0x3e51bd95bd2c94ddU,
  0xbe8acfd6be1a872fU, 0xbe09d24a3df91c14U, 0x3dc91d0ebe301695U, 0x3d2beabe3e33d5f0U,
  0xbdb8241bbdaa3fd6U, 0x3e0076553d1604aeU, 0xbc3f2e613e92ddbaU, 0x3dfc1fc3bdb41c71U,
  0x3ddf56d73e63cd77U, 0x3ca2ca48bd95ab56U, 0xbd9aebc8bd519efaU, 0xbdb0ce03bb7fd0daU,
  0x3e6686483dda8b9cU, 0x3e07fcee3d9c7a20U, 0xbd2a8c583df6084eU, 0x3d54dedb3dbf69ccU,
  0x3e461d293ee22ccbU, 0xbe926f8ebdcfd67aU, 0x3ea607793f460094U, 0xbe2e75babeb56b15U,
  0xbd8887cfbe099fe7U, 0x3deef26e3f0fa8d9U, 0x3a38f2e23e30af58U, 0xbe2241933e4b7ab5U,
  0xbea91fb4bd8b6d72U, 0x3d142e6f3db4865dU, 0xbde5e3523e696a35U, 0x3b8298db3e2fde3fU,
  0xbd48a157becd5e7dU, 0x3eaa45643e31b669U, 0xbe5c474ebe0ec49bU, 0x3e37618ebe6445a1U,
  0xbd8cf34cbba713d4U, 0xbde6f8ab3da13d05U, 0x3da510babe0b63afU, 0xbdb1b9893e50cc14U,
  0x3c46689f3ddf4598U, 0x3e053f06bc136e1fU, 0xbe7641e13eb65fb7U, 0xbe5d58e03e28a989U,
  0x3db78d9d3d16273fU, 0xbdb795ab3d14d0abU, 0xbe0dd1dd3c448589U, 0xbdaaabff3dc3a731U,
  0xbd8552a63e634559U, 0x3ea4daa33e62145bU, 0x3e2065183d80da30U, 0x3bb1d62abdf247c1U,
  0x3eb71f25be2b7dd9U, 0x3ee719913ea6108dU, 0xbe98e19e3e49f652U, 0x3e1e07833e870798U,
  0x3d0de5303e25d47dU, 0x3c0274d2be67dd48U, 0xbde162673ed93a1fU, 0xbe1aa12cbd46e87bU,
  0x3ead2111bebb4083U, 0x3c7ff8cbbeaaef0bU, 0x3d27c025be7d70ceU, 0xbeae4692beccf8f0U,
  0xbe8619af3e03ffedU, 0x3e7e9525ba6140deU, 0x3ed40fb83e9be928U, 0xbecdbfba3ea58684U,
  0x3e372f043e921f33U, 0x3e874bfcbd9f7583U, 0x3ea293813e79aa7fU, 0xbe9e92e1be9772a1U,
  0xbddb56c43c72f33dU, 0x3dadaaa63e614790U, 0x3eea4b35bddd65ecU, 0xbe954b84becd30e1U,
  0xbe213f223e79f1acU, 0xbdaff329bed9139dU, 0xbd8ecea23ef53e09U, 0x3eff92c43ef36c65U,
  0x3e6420c83dd28f09U, 0x3dcd6436bd111787U, 0x3e21ad643e766564U, 0x3d9440603eb99881U,
  0x3e37fec23dd9c8c8U, 0xbec5ecf63e80c274U, 0xbe74e23ebecf292bU, 0x3e28cd803e99ee15U,
  0xbe88878abe9f1b5eU, 0x3d812895be66e3d1U, 0xbe0c317bbe046ec4U, 0xbe2cf9e5be064288U,
  0x3e2763e5bea60f63U, 0xbe9b0dd13eb12e35U, 0x3e6afc52bead663cU, 0xbedb71cbbe7d2b9bU,
  0xbe51ec4abe7ae54dU, 0xbe9f90f23dc8a542U, 0xbe7a7023bdc6d881U, 0xbdab54d4bdc7d99bU,
  0x3e9ff3f4bce05308U, 0xbe36fb72bee1d89dU, 0x3e2ecb463dc4a456U, 0xbe65038bbe1e0c24U,
  0x3e8b2c673e647f8aU, 0x3ea24e343e0e1bedU, 0xbe3c098a3e8a0d3aU, 0xbeb347da3f312cd8U,
  0xbed6e53a3d8cd1abU, 0xbe217da23d23ac86U, 0xbe50254a3eb9f310U, 0x3e93bac03e9489b4U,
  0x3e534e003d9efa2fU, 0x3e48c33ebe6038c3U, 0xbebe53ab3dc9892eU, 0x3ea6c5abbeff5bfcU,
  0xbe954eb43e779f14U, 0xbec95277beb22030U, 0x3e97febb3ec2a1a8U, 0xbe977588bebf8fb7U,
  0x3e6eaf363eb86356U, 0x3dfee9233e9fd5c9U, 0x3dff4d1cbeaeab16U, 0x3e8c49543e16da91U,
  0xbed78fd03ef20f98U, 0x3d127303bcb46d43U, 0xbdf890f93ea2f3bfU, 0x3ebbb9f93ed28904U,
  0x3e3e2447beab771eU, 0x3e7fe38ebeba0b39U, 0xbed4df75be05ba87U, 0x3edb0babbe9ec267U,
  0xbd0726b3be89cd80U, 0xbe340e57bdb8660cU, 0x3e54b26cbe844ca5U, 0x3e5864bc399f94deU,
  0x3e6a6e2a3ebbfc6dU, 0x3e5dd4cebd2429b3U, 0xbde03ce73e58620dU, 0x3e639360bea2c903U,
  0x3e894ae5bde66b83U, 0x3e192a32bdf33dafU, 0xbe9f4dd6becfa364U, 0x3d4c20d23d10b52dU,
  0x3bd4b0813db01a00U, 0x3d711191be894e86U, 0xbe31fa5d3debbe43U, 0xbecbf87bbe00740aU,
  0xbe2cff5fbc81ce1eU, 0xbe86e2d4beaf5a42U, 0x3dbcf24dbe23f730U, 0xbb1a13aebe6e5864U,
  0x3e9ada253e3f3bd2U, 0x3b40d93f3cec9da4U, 0xbe608a773e95d58aU, 0x3e25f70c3e4b357fU,
  0xbe4bba623ba17ccdU, 0xbe8061e5be588263U, 0xbdcefa973e3371e3U, 0x3e4d24893d1b4cf5U,
  0x3e9489b8bd229fceU, 0x3e8aa7a0bebbb10dU, 0xbdd136173e6b01edU, 0x3b9acd83bea4e4b1U,
  0x3c8b0bcebe58a34aU, 0x3e821bcd3ea4542bU, 0xbe9d2b59bf165b5fU, 0x3ed8e9133e79b4dfU,
  0x3db47c613d81a882U, 0xbed3625bbec4260fU, 0xbf259ba8be80b8b5U, 0x3e97ce4bbe1236c5U,
  0x3effe091be3c181fU, 0xbd89c45abd9913b5U, 0x3e50b3e5bf0563ccU, 0xbf15e15bbef1b633U,
  0xbe9d96533bacf3ceU, 0xbe1cc2853e41c719U, 0x3e05bb02bdd3faf8U, 0xbefd2044bb661799U,
  0xbe082b20U,
};


ai_handle g_vae_weights_table[1 + 2] = {
  AI_HANDLE_PTR(AI_MAGIC_MARKER),
  AI_HANDLE_PTR(s_vae_weights_array_u64),
  AI_HANDLE_PTR(AI_MAGIC_MARKER),
};

