/**
  ******************************************************************************
  * @file    vae_data_params.c
  * @author  AST Embedded Analytics Research Platform
  * @date    Mon Mar 20 15:15:46 2023
  * @brief   AI Tool Automatic Code Generator for Embedded NN computing
  ******************************************************************************
  * Copyright (c) 2023 STMicroelectronics.
  * All rights reserved.
  *
  * This software is licensed under terms that can be found in the LICENSE file
  * in the root directory of this software component.
  * If no LICENSE file comes with this software, it is provided AS-IS.
  ******************************************************************************
  */

#include "vae_data_params.h"


/**  Activations Section  ****************************************************/
ai_handle g_vae_activations_table[1 + 2] = {
  AI_HANDLE_PTR(AI_MAGIC_MARKER),
  AI_HANDLE_PTR(NULL),
  AI_HANDLE_PTR(AI_MAGIC_MARKER),
};




/**  Weights Section  ********************************************************/
AI_ALIGNED(32)
const ai_u64 s_vae_weights_array_u64[1193] = {
  0xbd2c4d3cbe310495U, 0xbdf084d83c9b09b8U, 0x3e05625fbd57d56aU, 0x3db28b0e3dd40326U,
  0x3d155a483d9d8deeU, 0x3db1fa023d4770dcU, 0x3a8d2d803e1f3dbbU, 0x3d4572e83dae9b22U,
  0xbdf6f912bd159f50U, 0x3d0282003c76ed40U, 0x3ca151f03d114e1cU, 0x3c235450bd9c2a94U,
  0x3d8a741a3d92da6aU, 0x3e271097be2b4c00U, 0xbd926fc63d232ab4U, 0x3bb0c1803b324080U,
  0x3d88f86e3dfba58eU, 0xbdb0e19d3d302c10U, 0xbdadfa3abd8a4bccU, 0x3e2f8b193de8e3a6U,
  0xbc28e3b03d9860faU, 0x3e314f353e2eb47dU, 0xbdd42ecbbda8fea6U, 0xbe2a77213e2622fdU,
  0x3df376f63dbb0452U, 0x3caf48a83da9ad0eU, 0xbe079be4bd89448eU, 0x3c9f45b83df4cb3eU,
  0xbe29a4d43df6149aU, 0x3e282f693e1a685dU, 0x3e28e96fbe24a749U, 0xbd27953c3d66f160U,
  0x3c9facab3d1896f9U, 0xbda21c233d20e712U, 0xbdf60eee3e067c12U, 0x3db9e4acbd8e7622U,
  0x3e217bb93ddc033aU, 0x3c99ba963c657e51U, 0x3d8abf67be0db4e7U, 0x3e256f26be213b30U,
  0xbbdce669bde7f37bU, 0xbdd1f14dbe07a8f9U, 0xbd60ddbf3e39a6dfU, 0x3d8396753d7dd8eaU,
  0x3df0cd063dc992e6U, 0xbcb09d26bdca8ae0U, 0xbb767063bd4ae7e2U, 0xbe15ee2dbdac8f6aU,
  0xbe0812523dc59c7aU, 0x3da1931ebe28fe5aU, 0xbdfb57debe109584U, 0x3e1439813d0f93dcU,
  0x3e2ed19d3e2d13b3U, 0x3d83963c3c6f9d30U, 0x3df487a23dba31a6U, 0xbdd8f9073e1953f3U,
  0xbe214c273d29c0ccU, 0xbce737303d903676U, 0xbd05f4bcbc2e2a10U, 0xbe0cbdc43cf986c8U,
  0x3df72caebdb4ea52U, 0x3db59c82be273611U, 0xbe28dcddbe0564d4U, 0x3d8bc888bdc0ecc7U,
  0x3d025fcc3e1cb8a1U, 0xbe261f783dfc901aU, 0xbd87beb8bd1acae0U, 0x3e1bc7033c4ea5d0U,
  0xbe032b9e3c442080U, 0x3d9b2922bdd18694U, 0xbd63685ebe27d106U, 0xbe0c37f23c198060U,
  0xbc4bddd0be1e542bU, 0xbc7a60103dbc2402U, 0xbcd896183cf556d0U, 0x3d888c06bdf45b5fU,
  0x3d4902dc3e28b385U, 0xbcaffda83d00f604U, 0xbda417cdbe19d77eU, 0x3dd6fb823db55f9eU,
  0x3d891d22be0da9f8U, 0x3e1692d73da28056U, 0xbe3241f4bdf381bcU, 0x3db96ad6be2ac3e4U,
  0x3e1c2d4f3d32ece0U, 0xbdff4a583e193d8bU, 0x3ab925803da845b6U, 0x3dc50306bcb7b488U,
  0x3c6e9d60be14427fU, 0x3df969163d3b7bf0U, 0xbd8476f13dde2482U, 0x3c1984a03e2a0ff7U,
  0x3e3108933e00e279U, 0xbde1b015be2f0c0dU, 0x3d72c8643d819886U, 0x3ca6ac103d94ea18U,
  0xbe1eb3da3e0dfef9U, 0xbd90c695be19502dU, 0xbe07281c3e1a5de7U, 0x3cdc5c0e3dc23a80U,
  0xbe1508d2bdd743efU, 0x3d07a771bd7f2b6fU, 0x3d09227d3e29dd54U, 0xbd40c975be138400U,
  0xbd368c043db2d920U, 0x3d62b7c8bdb16e01U, 0xbe350f4cbd04a55cU, 0xbe1d34dc3dfea067U,
  0x3df69d51be01f496U, 0x3dc863bbbe049aeaU, 0x3d05f9673dbcc7e3U, 0xbdd0e793be2d8098U,
  0x3e19bbcfbd7d056aU, 0x3d99a8d239124800U, 0xbe1c3d983cc30c40U, 0x3d5d83003dd51a0eU,
  0xbcde97f83e304c31U, 0xbc77d170bd0e7208U, 0xbe213cdc3e1dd165U, 0x3c2d94e0be060d92U,
  0x3e30014fbbda57c0U, 0x3e1c7ae13e077d9bU, 0xbddf62a43d54b1e0U, 0x3e0b929bbda5d7f9U,
  0x3e12962d3d553068U, 0x3d1bbfd8bd073e78U, 0x3d3de1643e042005U, 0xbde2de153d48caa4U,
  0x3dceebf6bd1c0a30U, 0x3e1ec2b7bdcc6855U, 0x3d8e9f103bbb29e0U, 0x3d4cf2943e1d14efU,
  0xbe261d42bdf0f92aU, 0xbdbf3c40bdf3c6f8U, 0xbcd74dd03b999ca0U, 0xbe29f6be3e304e21U,
  0xbe078424bce72638U, 0x3d9ad1debcc4de68U, 0x3d94dc32be1c8baaU, 0x3db3699e3dbaf10eU,
  0xbd9db92bbe0701b9U, 0xbc9bd6a03e014d67U, 0x3d9d20b2bd820beaU, 0xbe02efb6bd3482b4U,
  0x3dd59e323d29ac34U, 0x3dd509563e33909dU, 0x3cabf0e03d9d8ab6U, 0xbdb2eb433c7d0b20U,
  0xbe1e2555bdfa227cU, 0x3d8d0c6ebe04c5acU, 0xbdbbb7273e1cee23U, 0xbd835b4dbdcfa96aU,
  0x3cbd8ba03e14dc23U, 0xbdb1c028bce41e70U, 0xbdd4c8ecbe00bdbdU, 0x3d632e34be06c0a0U,
  0xbdbb73733e18ac1fU, 0xbda5100f3d5d92bcU, 0xbe1b429e3dbbe02eU, 0xbe20067fbdb5cbdeU,
  0x3dc470eebdea9314U, 0x3e242037bdfec175U, 0xbd57e7e3bdb2afbeU, 0xbd7cac18bd7b1c4dU,
  0x3bab869ebcbeb119U, 0x3e0de5853e39ac03U, 0x3d910610bd5478bdU, 0x3d0b1edd3da3a91aU,
  0x3e1f9cc4bb5e3513U, 0x3dba1cb93c91df70U, 0x3b21e754be273c93U, 0x3c3227f3bded3e13U,
  0xbdcf8d6dbe16ea22U, 0xbd5ad447be1828a7U, 0xbc7355f5bbddeaf2U, 0x3de2bd9f3dbb0e2fU,
  0xbb81fd20bdee3b19U, 0x3d2d95b03de0e792U, 0xbda1007b3c5f9250U, 0x3d3381dc3e271885U,
  0xbe24d7483dd3c27eU, 0x3de5ac0ebdd34bf7U, 0x3e26e425bdc1e263U, 0x3dfbee2a3d167258U,
  0x3e06b051bd716d10U, 0xbda8d0f93de28462U, 0x3dabb5a6be2ca917U, 0xbe1b36f83c1e6290U,
  0x3d84c2d23dceb0eaU, 0x3c94d9e83e0ef5efU, 0x3db11d7ebde951e8U, 0x3e05d2e7bbb85b20U,
  0x3e0537a73e3304bdU, 0x3cc5f9e03c95e998U, 0x3c340f90be28318eU, 0x3d389e643dcb0f22U,
  0xbd59ae783befd560U, 0x3d941d0ebba629c0U, 0xbb8ab5e03e255993U, 0xbdc4b1843d9e670eU,
  0x3e21451b3db72f36U, 0x3e1b1d0dbda59e36U, 0xbbf01d803e118d37U, 0x3bcda9c0bc830650U,
  0xbe1423f03d28acd8U, 0x3d8f7b963d9864b6U, 0x3d0b4f483d30be14U, 0x3d1e671cbd6e617aU,
  0xbdc44bbcbcda5928U, 0x3e15efab3ddb1efaU, 0xbdae58123e2582b9U, 0xbcbba6b83e0c4d8bU,
  0x3d495138bd07155cU, 0xbe06bf98bccda9f0U, 0xbd804f1fbcbe0e28U, 0xbdda00783c90ae00U,
  0x3ddd71a23cf11be0U, 0xbd1fe778bd3ffc6cU, 0x3dcf7e323d862e84U, 0x3c6e16d03cee7a00U,
  0xbdc970a23d1b2278U, 0xbe22a60c3d099c1cU, 0xbdbe3146be2b8056U, 0x3d601f003dc7fa6aU,
  0xbda6aa643d953c72U, 0x3d37a703bda3e880U, 0xbd2747a0be25696bU, 0xbc17156d3dacb32cU,
  0xbd1a57d83cc4bd54U, 0x3d5aabc0be0d5e80U, 0x3db3adb43dbef594U, 0xbd84564ebe29eef6U,
  0x3df7d0343e1d0479U, 0xbe3307e03e160a03U, 0x3d5fb3a5bc60556cU, 0x3dbd5ba9bdd575f6U,
  0xbe1fe5613db43b64U, 0x3d212402bd917207U, 0x3c16956a3e05db6fU, 0xbded49803d0e9d01U,
  0xbd1ade80bca1e808U, 0x3d63c1043e24b9fbU, 0x3e291e553de91262U, 0xbd9e0bb33db8f1e2U,
  0xbade5300bd5be6a0U, 0x3dc79952bcf5efa0U, 0xbbb993003dbaa986U, 0x3d123530bdbe11adU,
  0xbd1aa8543d9c16aaU, 0xbd4767d8be099e97U, 0xbc4059e03b6183c0U, 0xbdfa80eebe20b29cU,
  0xbd906a81bdeca778U, 0xbd89a321bd3b5110U, 0xbe0525af3c85f7a8U, 0xbdf73220bdb6c4fdU,
  0xbd8c59ee3def4f46U, 0xbcd4f2503d4a7014U, 0x3d7c5ad43cd234f0U, 0xbdc043073e0da3c9U,
  0xbdc4404a3da7622eU, 0x3dff19a63e2483efU, 0x3dd555163c8c4f70U, 0xbdb64298bd7e2638U,
  0x39883a00bd4af3a4U, 0xbdfc90463dcc40e2U, 0x3d68388cbdc02023U, 0x3e1fd017be235ac2U,
  0xbe31cfdebd873e55U, 0xbe04b9c03e15cbd1U, 0x3ddc51d2bc3b8bd0U, 0x3d85e2163e1502c9U,
  0xbdfa01d3be2bc9eeU, 0x3e2dd81f39e5d400U, 0x3d80f3a2bde2d9a4U, 0x3de8310eba313800U,
  0x3d2ea9c43c55a300U, 0x3dbaf1b63dcaa746U, 0x3cdb65503cf85b68U, 0x3d3a9d6c3e2bd1dfU,
  0xbe0a53e03cd388d0U, 0x3dde3412be11062dU, 0xbddaed923d850068U, 0x3d59aa70bb5fb480U,
  0xbdc2646e3db46abaU, 0x3e00f2f53e0cb9e5U, 0xbe2cfacebd7f987aU, 0xbe110ad73d196cc8U,
  0xbdbdce77bd9163d1U, 0x3d0edd5abd617e26U, 0xbe1bae29be1be35fU, 0x3d8627f0bdff4f6cU,
  0x3e00e99b3d6cf620U, 0x3dc75b25bde515a2U, 0x3d520e983ce49fd7U, 0x3d00c1073e193836U,
  0x3ca609aebdefd345U, 0x3d26b629bcd1480bU, 0x3e1d528e3d019a29U, 0xbdf5a47abd9fd819U,
  0x3ca6f263bd8604abU, 0xbe28730fbe013e15U, 0xbc8147bfbe1fb39cU, 0xbc633affbbe4ff5dU,
  0xbe1e706bbdfbfe2bU, 0xbd9b6cf13d5e32f0U, 0x3df3dceebe184389U, 0x3cb0c078bdbee2e4U,
  0xbe336bc7bd71acaaU, 0x3d99d86e3da73552U, 0x3c9f73103e06b18bU, 0x3d8abd503e215b9fU,
  0xbcbc9a083d3d960cU, 0x3de700c6be0c01ceU, 0x3d7ce5d0bd79fc42U, 0x3da619b6bb299a80U,
  0xbce97ac0bd8052f7U, 0xbd847a1fbdd9a223U, 0x3d88f8ea3e1545bbU, 0x3e016c0b3b5970c0U,
  0xbcd74fd83d6fdc94U, 0x3d5c5adcbe2796b5U, 0xbce9c928bdcae865U, 0xbe02a9f63e0b6ba3U,
  0xbd3d94183ddc3e66U, 0xbd79f1903e1d8c65U, 0x3c9d7770be242df6U, 0xbd934b873c896e48U,
  0xbb459a803da2b402U, 0x3e18a4913c8e0700U, 0x3d0e38c03ddfc806U, 0xbbb7b560bdccb52fU,
  0x3e12c57d3d8d8c16U, 0xbd825ff3be1cd049U, 0x3ded050e3c11bbb0U, 0xbcfb40083e00444bU,
  0x3e2b94ab3e065f49U, 0xbd5b69c8bdce7c19U, 0xbd64addcbd464ba4U, 0x3d11025c3e28bfabU,
  0xbd97b9d73d154274U, 0x3c6acf00bd9271d4U, 0x3bc3ff403dffd326U, 0x3d28c3903d54532cU,
  0x3ba213a03c11a720U, 0x3dbfa6023d1f6744U, 0xbd085cc0bc948470U, 0x3d618034bdadce51U,
  0x3e073903bdc1eb4bU, 0x3e1ed01f3d9b6896U, 0x3e241dc1bd172900U, 0x3e0b632bbdab6ba5U,
  0x3dc23b1d3e3b9e31U, 0xbe1be344be1cd708U, 0xbdddd3a23df09463U, 0xbd6b23a3bd23a7c5U,
  0x3d22daca3df9e594U, 0x3d942b913df9f82fU, 0xbceb40b2be005c80U, 0xbdb094ffbdd32a30U,
  0xbde9932b3b20d9baU, 0xbdf04fc8bdc7370cU, 0x3d27f44fbe20e0eaU, 0x3c8a712abcdb97d1U,
  0xbd0f9e16bc9f5a5bU, 0x3daa512bbe04f5bcU, 0xbe1af7f63d6614b7U, 0x3e1d6e6fbd8af0b7U,
  0x3d1bc1383cf18ad0U, 0x3e2d9385bdebcc72U, 0x3e257ef1bd1c5330U, 0xbe24961bbd9ad550U,
  0x3dd80a56be1fe88eU, 0x3d6468a4be2ad7efU, 0x3e218637bdaab4dbU, 0x3c4cc2903d01b2d0U,
  0x3dd1edaa3e2d6df3U, 0xbe0370e7bccf2330U, 0x3e07ef133de6a1deU, 0xbda7d1a43d6678fcU,
  0x3de6ce663cf69dd8U, 0x3db15f2a3d86365cU, 0x3db52ffabde6014aU, 0xbe2556103e0d21b3U,
  0xbdb2e568be177cc6U, 0x3dc381963e0bbedbU, 0x3e02992b3dfe4526U, 0xbdcc69fdbe099042U,
  0xbdbd25e63dcadd1aU, 0x3db7112e3dec5a3aU, 0xbdafcf5ebded7e9cU, 0xbc8c6e18bd56c5ccU,
  0x3d30cbc8bdcaf19cU, 0xbd56e91a3d5f3d58U, 0x3d1d5a543dd7251aU, 0xbe2788d2bdc5e37eU,
  0x3e0a21d9bdd276c6U, 0x3dd20adebdca5fd0U, 0xbc19e4d0bdb65c18U, 0x3d5d40f83c718540U,
  0x3dede032bd8a352cU, 0x3d06b9b43c3d1280U, 0xbdb0f9a23dea5532U, 0xbce203183d41fcbcU,
  0x3cbe2110be244bd6U, 0xbe06a9223d37c960U, 0x3e23ff3b3d08090cU, 0xbe1603a23e1950c5U,
  0x3d8fe6363daec60eU, 0xbdaef2dc3d996692U, 0x3dce184e3da2424eU, 0x3dedf8e6bbb4d420U,
  0xbc9ce8f8be0e93f8U, 0x3cfcb438bd2fd83cU, 0xbe0a617a3dd79f2eU, 0x3c121600bcae3d88U,
  0x3d0843353e0ccf47U, 0x3de276943e0011ebU, 0x3d8f7bbfbe139e6cU, 0x3e1546253dcd57baU,
  0xbe15159d3d9deb5dU, 0xbe249aa23dc33280U, 0xbd23186c3baf3399U, 0xbe2a1fff3d986daaU,
  0x3e26765abdc17394U, 0xbe1c25aebc60a907U, 0x3e12ab4abe09b74eU, 0x3cc0fbd9bc8553ccU,
  0x3c04dfd7bca28d54U, 0x3cfbc060bd4d8d00U, 0xbde82ab23d55e86dU, 0x3da6299f3e269c65U,
  0x3da83b56bcc6e6a8U, 0xbe01a81fbd6ae664U, 0x3e325e15be07b110U, 0xbdd63b723e33fb33U,
  0x3d0be6143e12e861U, 0x3d8038f4bda7d993U, 0xb80c30003db3349eU, 0x3e0977d7bbbfe140U,
  0xbde09da33cf31768U, 0x3e2343dbbdb4f433U, 0x3e0f6af73d64ebf4U, 0xbcd61b383d027788U,
  0x3d91d0c8bd54f9bcU, 0xbe0f4e263da934ceU, 0xbbd87900bd315490U, 0x3ca5f970bd81c0c8U,
  0xbd705a66be02d1e7U, 0xbde27f933d37a9d4U, 0xbe01504c3dd4e5d2U, 0xbce98f30bd9daa24U,
  0x3d3f9938bcb55f78U, 0x3dd163aa3dd56996U, 0x3dfac1c2bd76872eU, 0xbd9027febd9beddbU,
  0xbe095eb53e0411b9U, 0xbd1e4c843c9b6040U, 0xbe092b983d848b50U, 0x3df2eff63c5abd60U,
  0xbd9036113e04cf43U, 0x3d8d6fb63e13ae39U, 0x3e0076a5bd81942bU, 0xbd84eb92bdabc726U,
  0x3dde9922bd8b2afaU, 0x3de02f32bda7f8f9U, 0xbd29bb7c3dea7792U, 0xbda398fc3c4c0480U,
  0x3de76fbe3e0467c5U, 0xbe11d178bdf4ae86U, 0xbb94e100bc176890U, 0xbe0618c9bd9e5c33U,
  0x3dcad51abd885fa1U, 0x3dd90d66bdfce27aU, 0xbdd41414bcfec678U, 0x3e2049813d348304U,
  0x3d87b92cbe129406U, 0x3d5cc12cbc9951e8U, 0x3b9e03c0bd1993f8U, 0xbd2620ac3badd120U,
  0xbd1021093dc55fdbU, 0x3e1dad01bd9ce2b6U, 0xbe120d133d8cd3adU, 0x3e22f066bd49f958U,
  0x3c9a0592bdaf26e5U, 0x3df22654be1c6f97U, 0x3d8c5f593d855c74U, 0x3bcfc9a6bd877971U,
  0x3cf697aabd3eed97U, 0xbd0b4d2c3d032581U, 0x3d9cbe88bde4b8deU, 0xbd1d56aa3e1a57ffU,
  0x3daf32ba3df43b19U, 0x3d8b05603daee112U, 0xbddbb936be31c77aU, 0xbe141927bda57935U,
  0xbda3669abc1acad0U, 0xbe1bcd00be245a5eU, 0xbdcc52b3bdaf9df5U, 0x3ddfe782bd3817e0U,
  0xbd2d6cc43ca0a638U, 0x3d4714f0bcd44980U, 0x3e0ec913bd16ee2cU, 0xbd2d05c8bdb57671U,
  0x3ddb10e2bcdad968U, 0x3e00731d3de67362U, 0x3cb2b958bd38bd98U, 0xbe1bccc7bd04d394U,
  0x3d85596a3de0fa62U, 0x3e0f8227bdb9c039U, 0xbdb7c3a93ddda26eU, 0x3d567524bcc7cee0U,
  0xbd7034143de8228eU, 0x3e13cb053d924dcaU, 0xbe3244193de4b10eU, 0x3dae5f963e33ed17U,
  0x3cc442b03d995052U, 0x3d8b9b08be151638U, 0x3d1a7414bd3c54f8U, 0xbd48ba1c3c3e2730U,
  0x3d5f9f183c782810U, 0x3e06c503bdc5e5edU, 0x3ca56388bb233700U, 0x3e0f725bbd8beeabU,
  0xbe12cb69be33ab4eU, 0x3e2b977f3e076251U, 0x3dbf1d723c8b7f30U, 0xbde1a9b83e1d7f67U,
  0xbd74e860bdd0b218U, 0x3dbf1c8abe17f022U, 0xbd428cac3df43756U, 0x3cf2b740be2c51f3U,
  0xbdbd65acbe1cf51fU, 0x3e00f63b3d9a903eU, 0x3da09f12bce323c8U, 0xbd994eecbc2b9f30U,
  0x3e2f6805be0ce0ecU, 0xbe17e723be1eff4cU, 0xbdcdbc57bd50b364U, 0x3d8333f2bd2ad074U,
  0x3e346db5be0ac3feU, 0x3e164b39bd4d86f0U, 0xbda1895fbe16cab4U, 0x3c4603f03cdccb90U,
  0xbe2217b9be19715eU, 0xbe01814d3dfe79d4U, 0x3d9bc407bd92a0f8U, 0xbd90251bbc97b9d5U,
  0xbdfe58c03e13d4ccU, 0x3e05de90bda15ddbU, 0x3dab589dbe30ed43U, 0x3e07501e3d52a1a6U,
  0xbdfd89f6bde4651fU, 0xbdc5b830bde72eedU, 0x3e0070ef3da466afU, 0xbe0877d83e17999fU,
  0x3cdbc9053c38bc7aU, 0xbcb7553e3e235bb2U, 0x3c90d8f2bdef8c4eU, 0x3d8991fcbdc98a03U,
  0x3dd19ac63d9b7a8eU, 0xbe12cc51bd900e18U, 0x3dd2acfa3e1794afU, 0x3e28b6173cc02da8U,
  0x3d9c9b463df5d72eU, 0xbddf33ff3dc6f3e6U, 0x3d3f41ec3d828b86U, 0xbdb829e7bc9031a0U,
  0x3db8145a3dd256feU, 0xbe002dc13e33829bU, 0x3e114eb3bd819bbaU, 0x3d913736bd566634U,
  0x3db4277a3dd6e73eU, 0xbdc50af73d952e32U, 0x3d8ae74c3e2d18c1U, 0xbd51a9f4bccdf458U,
  0x3a18e1003d4038d8U, 0x3da7343ebe15a0feU, 0x3d5caa883dc11eaeU, 0x3ce87e503daf9596U,
  0x3e2effb93a7b4100U, 0xbd8977883dc55322U, 0xbe260db63c8cf298U, 0x3e07ee65bd5c32d2U,
  0x3e3400fbb983a200U, 0xbd222a483d7d3200U, 0x3d9f5eeabdbcddffU, 0x3bc6e7e03dbe96caU,
  0xbe003503be102a77U, 0x3d827c203e1987e7U, 0xbe31ca90bdeba9eeU, 0x3d8c735cbe256f0eU,
  0xbca54c18bbad2940U, 0xbce96010bc4676b0U, 0xbe003846be0cd7c0U, 0xbdffaee2be313f84U,
  0xbd8ec3033dc430baU, 0x3e149513bde820e1U, 0x3d0af65c3dcd50f2U, 0x3dc876d23d9f049eU,
  0x3e2a076d3e14c367U, 0x3b9307003d6ee96cU, 0x3de54dde3d8e3576U, 0x3c75dc20bda9d8d6U,
  0x3e201bd13e2ab5f5U, 0x39f4ae00bddeaf75U, 0x3df7b1b23d1d9a74U, 0xbdcc34cd3e056f6fU,
  0xbe0ba856bd1a64e2U, 0xbe191c10bd47e2b0U, 0x3e1424613e3b926bU, 0xbdc06bef3e2759d9U,
  0xbda8ed84bd93eeb1U, 0x3e2f63253d1f8791U, 0x3e10e952be26caa6U, 0x3e11b97ebd691c1eU,
  0x3e01cedbbd0e1965U, 0xbdd2e5ffbe17c94cU, 0xbc2adf42be245c1bU, 0x3d9f2dbcbc109190U,
  0x3dcbf49fbdb71e35U, 0x3e11effabe280b9cU, 0x3dce36c83deee2c5U, 0x3e169f4bbd6869f9U,
  0x3e01dd9b3bb45700U, 0xbe32556ebe1fad50U, 0x3e295dc13ddb5946U, 0x3acc58003d4196e8U,
  0xbda0e476be09dd0cU, 0x3c15fb30bddb7249U, 0x3dc442e6bdb23bb9U, 0xbda31089bcf79818U,
  0x3e12517d3d62d8a4U, 0xbe173a2fbdeee2e2U, 0x3de0024a3dab281eU, 0xbe3151593ce2a958U,
  0xbcdff6b03dc42fe6U, 0x3e038d1bbd532cecU, 0x3dd2462e3df4703aU, 0xbd7ef1d23cb1f088U,
  0xbc0cf5a0bc7ca520U, 0xbca657a83e1c4ed5U, 0xbd879a53bddcf754U, 0xbe1ba0a33d531a18U,
  0x3e0781f7be0b7e0dU, 0xbe324be6bcffaf48U, 0xbd65f26abce24278U, 0xbddb6b1abe1f480aU,
  0x3d8be4a4bdbe80b6U, 0x3d5b6e28bc14bde0U, 0x3d282b68bd2df7b4U, 0xbe094e72bdd9c23eU,
  0x3e16daa93e15debbU, 0x3d0080bc3dd01336U, 0x3d9839a63de0bceeU, 0xbd179c14bdbcbd78U,
  0x3d834c243ced6080U, 0x3d7f2dccbe0cda0cU, 0x3dec9582bda624a6U, 0x3c8e8f783d520a58U,
  0x3ddeb75e3df90fe2U, 0xbdb78d91bddf8681U, 0xbd93f016bd885b03U, 0x3e1824bf3d4521c4U,
  0xbe28b6673d57d7acU, 0x3e326155bda9fb87U, 0x3cad02983b87f380U, 0x3e2a2d55be0373f6U,
  0x3da1c5d6bba78aa0U, 0x3e1d76533d0ae148U, 0x3e10cc493c05bea0U, 0x3e0506e7bd6628a4U,
  0x3db9cb913e106f57U, 0x3da7edcf3c02356dU, 0xbd7316bb3c32352eU, 0xbd88eba63e19ce15U,
  0xbd49ccc9bdd19c60U, 0x3d1d78373d85ebdaU, 0xbd3bc5edbc24483cU, 0x3dce7ef039fac0c0U,
  0xbc00045cbc803d56U, 0x3bcb4a0dbe15b277U, 0xbd207004bd5b3610U, 0x3d431327bdd72170U,
  0x3da63a25bdbb459bU, 0x3cbf5b4abdd350fdU, 0xbdf11f783d367a7dU, 0xbcb413ebbd418801U,
  0x3e1f9a3f3db05c6eU, 0xbded442abd517828U, 0xbd77d0b0be0e0eb9U, 0xbdd33f763ce09178U,
  0x3e293e233e315423U, 0x3d5fd4a03de9f136U, 0xbd98c6413e21ec63U, 0x3e34b87fbdc77da9U,
  0x3d0bb8c8bd8daf49U, 0xbd84f030be0aa5b0U, 0xbcc90fd0be149af6U, 0x3d8682003c1ce840U,
  0x3e28fd93bdd2fc3dU, 0x3d54f00cbd0daf50U, 0xbcf21180bdff36a2U, 0xbd95360abdd5afe7U,
  0x3d822438bc4c52d0U, 0xbbc51a60bb8a8f00U, 0x3d85946abd88ed9aU, 0xbd62b402bd7387d6U,
  0x3d6bb318bda0dbfaU, 0x3d290ca8bd007b78U, 0xba4b29003d9cb7ceU, 0x3e0698e53e028c19U,
  0x3e110d593d66ebc4U, 0x3e1f00c1be276f1cU, 0xbdde8655be0bbc63U, 0xbe19ac133939a800U,
  0x3de8d7123dcec532U, 0xbd134454babe8e00U, 0xbdc1ab09be057974U, 0x3dd1508ebc96d668U,
  0xbe23f38cbdf5cabcU, 0x3d918d30bdb58dc6U, 0x3cb0b0903e2fa7b1U, 0x3d812a363d25aa74U,
  0x3dd2efbabd1b6b50U, 0x3d1274ecbc309030U, 0x3dd9ef1e3e264fbdU, 0xbd13d2683d910bf8U,
  0x3d86c774bd1153e4U, 0xbde0a72ebcdf60e0U, 0x3ca23168bbec82c0U, 0xbd67003abdf1ebdcU,
  0x3e1fd96bbc876198U, 0x3d17b9e8bceef2d8U, 0x3d45a884bdb1482bU, 0xbd41f2403d155828U,
  0x3da2ffbe3cfdee9dU, 0xbd8f3959bd3a9a7aU, 0xbdf8ac133d649eb5U, 0xbe0f26863e00b878U,
  0xbe16530cbcdbc4f4U, 0x3d5d72cb3e1faf95U, 0x3e2cc5ab3dfd13b4U, 0xbdc31dbf3c0f9ce4U,
  0x3dd219ca3daf56abU, 0xbe268c32be24c40cU, 0xbdf9cdd5be28a13bU, 0x3be115c13d61deeeU,
  0xbd0e97b3bd6bf7b8U, 0x3dad2777bd962e5fU, 0x3ddfbe75bdfe48bfU, 0xbd4647543e37c6feU,
  0xbe029bfa3d990e16U, 0xbd41dbf0bd292414U, 0xbd9107043e016dc3U, 0xbc8328583d2fae48U,
  0x3dfca872be2ddc0aU, 0x3e0b244dbe337d2bU, 0x3d4b08ac3e155163U, 0x3df5feaebd5a984cU,
  0xbb2026003e2571cbU, 0xbe253ec93de74722U, 0x3df31dfa3d2c19ccU, 0xbd52a2983d82a698U,
  0xbd1a07dcbdf28b39U, 0x3d83ebd63da969e2U, 0xbe077fffbd77233aU, 0x3d03afacbd90d74fU,
  0xbe087790bd8b3c37U, 0xbd278accbd4ccb1cU, 0xbda7d00dbda1d891U, 0xbcc27a28be2e2a49U,
  0x3cd6e858bda9f29fU, 0x3c698ea0bdf3e170U, 0xbe2bc67fbdb23041U, 0xbde5d9453cafeff8U,
  0xbe25a8df3d993fdeU, 0x3d5777fc3e20f8abU, 0xbdbca825bd6c2016U, 0x3e33fc173e00d22dU,
  0xbdbd9d28bd325e58U, 0xbe0f42a23e1fd899U, 0xbd8d4c17bd4e323cU, 0xbdcd6ad3bcff85c0U,
  0x3cf769d8bd4b1e6cU, 0x3dd9327a3d4cc2ccU, 0xbcd9c778bd8568b4U, 0xbe15e5c4bdc88991U,
  0x3d35dafcbe088f8cU, 0xbdb50cc63dfcae92U, 0x3dea5b723e0386a9U, 0x3db3a8e23e10d69dU,
  0xbe0ddd91be05e130U, 0x3e2db62b3de60cbeU, 0xbba3d220bde5c4b3U, 0xbe03962e3dc87202U,
  0xbe1a1371bd0fd5f8U, 0x3e0c2997be3444b7U, 0xbc23f2b03d2e87a4U, 0xbd888389be17c196U,
  0x3e1321d93e024817U, 0x3e1f4fdcbdaa787cU, 0xbe0df2c93e098abaU, 0x3e0852adbcc267cdU,
  0xb8c105fb3e3615f9U, 0x3dac14d8bd5c84c6U, 0x3dd25694bdc877b4U, 0xbe099629be0c832dU,
  0x3da8ae4a3dc51456U, 0xbe2490b3bdd0c28eU, 0x3dd6cdccbe120bc4U, 0xbd97a21ebd2aa49dU,
  0x3dbab7223c813fafU, 0xbcec1637be31240dU, 0xbdd8153e3de68ff3U, 0x3e23d52bbde110cdU,
  0x3ce30b90bded709fU, 0x3e300771bdaa9115U, 0xbe2127babe05da2cU, 0xbdf0e148be286e80U,
  0x3e248a873e293bf3U, 0x3d9ebb5e3e1d04e7U, 0x3e270b113c7b2cc0U, 0x3de66356bd31396cU,
  0xbe0cb1693e3096e5U, 0xbd0e81303d58203cU, 0x3d3e403cbe1ab3faU, 0xbd06cb20bd52ceecU,
  0x3b67bb80bdd8946bU, 0xbd3337d4bbdc4700U, 0xbe24b0cd3c8d26f0U, 0xbe267c98bcde4da0U,
  0x3dc334b2bdec7095U, 0xbd0552e4bd53c480U, 0xbcba51303d3278bcU, 0xbdcfbff43e19077fU,
  0xbda253403dc9181eU, 0x3db03812bd822dbeU, 0x3e1ab54d3dad2eb6U, 0x3bca6e80bdb70ca7U,
  0xbe2612e5b9f84e00U, 0xbd40e21cbe2b853eU, 0xbca551a8bd70edcaU, 0x3e1421eb3e292601U,
  0x3d628e88bbcb87e0U, 0xbe1a0791be181270U, 0xbd5f0870bd85b014U, 0x3bec6340bdd5371eU,
  0x3dfbb3f63e1a8ff9U, 0xbc1f9dc0bc777c70U, 0xbe0881ac3d227940U, 0xbdf296563d6d7368U,
  0xbe2d0c24bd6f9a3eU, 0x3ccd12a03d8817e2U, 0x3cbfcb603b794f80U, 0x3dc863eabe209ebcU,
  0x3e12f8033d5fe908U, 0xbe1dbf143be3a5a0U, 0xbe0c2de9bd9d9af6U, 0x3e1e5eddbe0b6663U,
  0x3d9763663e28591fU, 0xbe1d7ca73d9f4746U, 0xbd7880fc3d105fe4U, 0x3d7510e83dccbbaaU,
  0xbe2a97fdbe1ea05eU, 0xbd3da24bbdcea174U, 0xbd21b532be18bd32U, 0xbde6b0253c505a7eU,
  0xbd3df1963dc524adU, 0xbd9f0f803d9ec43cU, 0x3dafbda53e36fa6dU, 0x3deacdb2bd1540cdU,
  0xbdc42d42bd3a3686U, 0xbc714569bd8eb6daU, 0x3cdcf8313ddbf718U, 0x3d021e58bd45d45cU,
  0x3e0d9fbf3c5243e2U, 0x3db6c3343dd087c0U, 0xbd6dfa74bce60422U, 0x3db8f2433c6c2746U,
  0xbe0c79763d1891ecU, 0xbbaa8b403c06f210U, 0xbe1250653cf4ec68U, 0xbcfff0803e271a95U,
  0x3e2a2f1d3e0244c5U, 0x3d14d7a4bdb9e1dbU, 0xbd343848bd9e7186U, 0xbe0914a9bcae5920U,
  0x3da944de3e15c951U, 0xbe175cd5bd282e44U, 0x3dfeeffe3d6ea054U, 0x3ddc6b72be10370aU,
  0x3d4b7800bb5e9400U, 0xbdcc239cbe16ff24U, 0xbe063a3b3de3eadeU, 0x3dc024723e296837U,
  0x3e34911bbdc92389U, 0x3e29e357bd9cb0ffU, 0x3e0a15813cbae8b0U, 0x3c2922a03ddfce52U,
  0xbe12b1b93ded53a2U, 0xbc8996f03df6f29eU, 0x3e148d713e174027U, 0xbdf01d5ebdeb878cU,
  0xbd039ee0bdc3a142U, 0x3c0bf4303dc273a2U, 0xbdeca066be209c31U, 0xbd94d114bd7f31a4U,
  0xbdcb3acbbdb2e6b5U, 0xbe0bf99ebd792622U, 0xbd4e879cbcc004d0U, 0xbe017e103cf28450U,
  0x3d3b8ab0be1f375eU, 0x3d83b87c3e04399dU, 0xbded674c3d51692cU, 0x3e2db9edbd35973cU,
  0xbd66855cbdbce883U, 0xbd78c0883de7e66eU, 0xbe1379673db3e54eU, 0x3da6ff46bdeaabaeU,
  0xbdf2159f3d61f6b0U, 0xbb8d68603def69daU, 0xbdca89ee3e2b21cfU, 0x3d9385b63dcb033eU,
  0xbc559230bbb89d40U, 0xbe17bc2e3e04731fU, 0x3e0735bf3e29ef85U, 0x3da51d8ebe17be2cU,
  0x3de9959abe26f592U, 0xbd171d5e3d753523U, 0xbd34eb993d02c075U, 0xbd6a4ba33e1e385aU,
  0xbe31b8013dbbb23cU, 0xbe22bdb53d897d94U, 0xbe3a5ea13de3f1d6U, 0x3e36a44dbdcd3feaU,
  0x3dccc606be117e6cU, 0xbcd30f70be1af1c9U, 0xbe357445be0ea7e0U, 0x3df5439abc454820U,
  0xbdc7ea963e1dfa22U, 0x3dda2f993b63fd58U, 0x3de2d7613d3a61b4U, 0x3e07c2a73d2a42f4U,
  0xbd8ab807bdc98743U, 0x3dd9da1a3e007ce5U, 0xbdd41ff23e312e13U, 0x3e26ad0b3df7072aU,
  0xbd86a3e03d11ba90U, 0xbdf96b203db971baU, 0x3dfa1ce6bca8b358U, 0x3d207f98ba8b5400U,
  0xbd365f9cbe27c290U, 0x3d845bb83d2a70d0U, 0xbd75549a3b72b640U, 0x3d7525003d913a92U,
  0xbe0b9536be0eb6a9U, 0xbe01471e3dd26c36U, 0xbd1f78803d87c110U, 0x3e18ee13bda29958U,
  0xbda0ed4d3cd957d8U, 0x3da0c9363d2e227cU, 0xbd7e134ebe33db9cU, 0x3e1cf0bdbde94560U,
  0x3e2762df3e08c81dU, 0xbd8d78a93cd49470U, 0xbe0aeaaa3dac906aU, 0x3d8838c23da237f6U,
  0x3b0b37803d27319cU, 0x3de6b4c2bd9aac0eU, 0xbd863a08bdc279c6U, 0xbe19b289be187054U,
  0xbb74bf403da92c16U, 0xbe26d8113e265113U, 0xbda056003d095d2cU, 0xbd118338bd71f8ceU,
  0xbc8b45d0bd97bf46U, 0x3e0f46a33de5f3f6U, 0xbe0d57843de6912eU, 0xbcb87f30be02ac07U,
  0xbda0d0b5bd32eb1cU, 0xbe0f4472bd006988U, 0x3ce6d800bb3ff940U, 0xbb6b3ec03e15a52bU,
  0xbe15eac03d9f0aceU, 0x3d45e100be0eaf56U, 0xbe0c31ae3d941b4aU, 0x3cfcf2d03d83c9d4U,
  0x3d48b9b83d113dccU, 0x3e0d4c973dd8e222U, 0x3e140f913d160588U, 0xbcbd6cc0bd707352U,
  0xbe04ee6fbcc5f971U, 0x3d3c7e09bd37cb34U, 0x3dec1307bdae4412U, 0x3dc328cfbe28fe58U,
  0xbe23d123be0504e0U, 0x3d0bbf883dc77f5bU, 0xbd5112bf3dfdd3aeU, 0xbe1d7176bd3f2b33U,
  0x3d67417f3e1b5d0bU, 0x3e24081a3e19450aU, 0x3cf7f819bdac2896U, 0xbd5cfda8bd9ac853U,
  0xbe0d5f313e2d5b4dU, 0xbdba9640bd1c27c7U, 0x3e0d2940bd5d951cU, 0xbc7adcc1be22b821U,
  0x3e2498f53e2ee6dfU, 0x3dfdb8563dc1fa12U, 0x3d950780bdc600afU, 0xbe2d8c7ebe02a95eU,
  0xbc4690e03e2d532bU, 0xbde357983e33de41U, 0x3e2659b1be2194f9U, 0xbde44f0f3e2f9e11U,
  0x3e21d2b93bdd6960U, 0xbe2d412f3e15f91dU, 0x3e104711bd2c3d8cU, 0xbe196a53be1fce53U,
  0x3cddd118bd534004U, 0xbdb246a33e05194dU, 0x3e2545cfbdb844c6U, 0x3ce606f83e18437fU,
  0xbaf6ec49bc467c69U, 0xbb8ee250bc07338eU, 0xb99859acbc2b13a4U, 0xbaabd9f3bca17077U,
  0xbc3137a9bbc21e92U, 0x3b542a0fbb0baa1eU, 0x3b1eae9d3ae684a6U, 0xbc031b4aba98d8edU,
  0xbe562536bdd517d8U, 0xbc023dc03dc69258U, 0x3bd7bec03e7a3620U, 0x3e14b356be752fb4U,
  0xbe16b53ebe627b71U, 0x3d32dac83e80e718U, 0x3de7e100be21d394U, 0x3e2a6608be49475cU,
  0xba73be00be4d1a4eU, 0xbc3b38203e45d226U, 0x3e84b270be140b53U, 0x3def9a28be3a1b4eU,
  0x3d777c203cc68c90U, 0x3daadf903e470cb8U, 0x3cda2720bdbd5202U, 0x3e7b4480bd004038U,
  0xbd627f683db6cf4aU, 0xbe0dd6dc3e7f20f8U, 0x3dfe0f9d3e5afc8bU, 0xbe80e042b9745e89U,
  0xbe4eb0943e5c3ceeU, 0x3e4a7486be6fa8dcU, 0xbe764a4cbd7191b0U, 0x3e07895dbd2ee397U,
  0xbdaaa32ebdf4635aU, 0x3e799be83d268c18U, 0xbdddf0a03e22b15cU, 0x3d164b58bd14f0d0U,
  0x3e80bab43e5a2ba0U, 0xbe58c6763deb3b3cU, 0xbdaa8052bcdac420U, 0x3d85c7f0be50e3dcU,
  0x3bee263dbfa6aa6fU, 0x3cde9dec3c2215ffU, 0xbadef26bba8a9ee9U, 0xbbc746cdbb3d4f1eU,
  0x3bf422e43c00ec65U, 0xb9c1c0ed3babacc0U, 0xbb9df228ba99808cU, 0x3b9eb85ebc9d16d2U,
  0xbbdd7ee0bbe5507bU, 0xb96b0836bc9365b1U, 0x3b39697d3c359fdcU, 0x3c1d4d37bbec7fd4U,
  0xbbb190efbbad86feU, 0x3bd192c4bb5360eeU, 0xbb967dd3bbe9efb1U, 0x3ae851183b60bba1U,
  0x3c96f3aebc3e95ddU, 0x3ca10fe73ab48a19U, 0x3c0d99b0bc11cf53U, 0x3c894b713d440deeU,
  0xbb15c9d8bb982102U, 0xbc06ac99bc252858U, 0x3b8153c0bbc0677eU, 0xbc26e348bbecbc9fU,
  0x3cb7608cbb02aad6U, 0xbaefdaecbbccc825U, 0x3bb13c01bcb1caddU, 0x3cb72f31bba99f41U,
  0x3c11ca793c01574dU, 0x3c8ef1523c5f0f9eU, 0x3c8cb2493c4392c1U, 0x3ab9d4f2bc531af9U,
  0x3b2a68ffbc862de6U, 0xbc6f291f3bef3894U, 0x3a4469783c810a25U, 0x3b49e60e3ac8a835U,
  0xbc9cbc733998fd9aU, 0x3bc4928b3ad16d19U, 0x3c42857bbc5fdc78U, 0xb9c4e0c5bcacdb16U,
  0x3c0c10ecbbb166beU, 0x3c0f3bcd387bfb90U, 0xba430d6e3bb86e74U, 0xbb125928bc99ad85U,
  0xb9fdce703c1ec181U, 0x3ba8bc77bc0eb693U, 0x3c4b39ae3aa35ebaU, 0x3c12067abb29e5c7U,
  0xbba1eba7bae3e381U, 0x3b7da4683b1deae8U, 0xba1c6ca9bb192c53U, 0xbaa1cab93d04a650U,
  0xbb05c9c5bad7e35aU, 0x3baaa5a23b38d941U, 0xbbdb8a6d3b4b4380U, 0x3bee39f4bd22c6a5U,
  0x3a91109ebb8c0c2fU, 0x3b9b2cc7bafb4a3dU, 0xbb0ee16d3c7f2ab7U, 0x3ccec09a3b019661U,
  0xbba18124bb93bc18U, 0x3b40ae1cbbd244a5U, 0xbb06bdeabb5e45beU, 0x3b5737e43a6f33baU,
  0xbd965a2e3c46b8a7U, 0x3daa3bb1bd8802b5U, 0x3da0c26ebbe65d41U, 0x3e2bd11cbe30e035U,
  0x3dba6f00be1b8297U, 0x3e37b2bb3e443d65U, 0x3d02cdfebd534b57U, 0x3e1f7ddf3e45fc99U,
  0x3e419e2c3e040623U, 0x3dd40ef8be2d584dU, 0xbd4f3f30bda7e474U, 0xbc2516533e1d1fd0U,
  0x3e3c009cbe4b8a16U, 0x3c9b63423cde6eefU, 0x3da8b0153db1feeeU, 0x3dc01656bdd571f9U,
  0xbd603ac23e191f38U, 0xbd3aa5cf3dc1f2c2U, 0xbe16f601bd23059cU, 0xbe4105603d887955U,
  0x3d2fd9b6be0c8637U, 0xbe48479fbe01f6b3U, 0x3dc8d446bcd41eb4U, 0x3def9dddbe4d0a9aU,
  0xbc9e342f3e3e9d45U, 0xbca978f83e183fd3U, 0xbe10f42abe267331U, 0x3c98986cbe3c50dcU,
  0x3c90c5acbda07c0cU, 0x3e6285e73d8c3cf1U, 0x3d963160bd910f7dU, 0xbdd4614cbc6f7dfeU,
  0x3e176c663df15601U, 0xbc56ff5abcaecff1U, 0xbe481aa7be0d20bdU, 0x3e42a446be3289f3U,
  0xbe0910bfbe0d79b0U, 0x3dc0ab603df09cedU, 0xbdaa971a3bd9d709U, 0x3e1f56c33cba3049U,
  0x3e3135d6be2c5effU, 0xbe2307c2bd9f632dU, 0x3e4cd9633d30a7e1U, 0x3e3e6374bda34562U,
  0x3bc42294bdca1b5cU, 0xbdd709d13dbd9462U, 0xbd1d3ebb3e2a40a6U, 0x3dbcfdd6bded811fU,
  0xbe60ad153dcc96a7U, 0xbe3716f2be1f975dU, 0x3dcc07cabe36860dU, 0x3e2c79e93e16764aU,
  0xbe256c463df3ea75U, 0x3da854ac3d8147c3U, 0xbe2894db3c74c7a2U, 0x3da58bbbbdb5241fU,
  0x3cae0ec63e1cb7d2U, 0x3e2401a93e39ac82U, 0xbe07aa273e27b68dU, 0x3d1bd1683e154c6cU,
  0xbcd9ad453e1c3578U, 0x3e0f6c8fbe1af0f6U, 0xbc6f5bb53cb52257U, 0x3d680139be1de67cU,
  0x3e26550dU,
};


ai_handle g_vae_weights_table[1 + 2] = {
  AI_HANDLE_PTR(AI_MAGIC_MARKER),
  AI_HANDLE_PTR(s_vae_weights_array_u64),
  AI_HANDLE_PTR(AI_MAGIC_MARKER),
};

